{
    "!": 0,
    "\"": 1,
    "#": 2,
    "$": 3,
    "%": 4,
    "&": 5,
    "'": 6,
    "(": 7,
    ")": 8,
    "*": 9,
    "+": 10,
    ",": 11,
    "-": 12,
    ".": 13,
    "/": 14,
    "0": 15,
    "1": 16,
    "2": 17,
    "3": 18,
    "4": 19,
    "5": 20,
    "6": 21,
    "7": 22,
    "8": 23,
    "9": 24,
    ":": 25,
    ";": 26,
    "<": 27,
    "=": 28,
    ">": 29,
    "?": 30,
    "@": 31,
    "A": 32,
    "B": 33,
    "C": 34,
    "D": 35,
    "E": 36,
    "F": 37,
    "G": 38,
    "H": 39,
    "I": 40,
    "J": 41,
    "K": 42,
    "L": 43,
    "M": 44,
    "N": 45,
    "O": 46,
    "P": 47,
    "Q": 48,
    "R": 49,
    "S": 50,
    "T": 51,
    "U": 52,
    "V": 53,
    "W": 54,
    "X": 55,
    "Y": 56,
    "Z": 57,
    "[": 58,
    "\\": 59,
    "]": 60,
    "^": 61,
    "_": 62,
    "`": 63,
    "a": 64,
    "b": 65,
    "c": 66,
    "d": 67,
    "e": 68,
    "f": 69,
    "g": 70,
    "h": 71,
    "i": 72,
    "j": 73,
    "k": 74,
    "l": 75,
    "m": 76,
    "n": 77,
    "o": 78,
    "p": 79,
    "q": 80,
    "r": 81,
    "s": 82,
    "t": 83,
    "u": 84,
    "v": 85,
    "w": 86,
    "x": 87,
    "y": 88,
    "z": 89,
    "{": 90,
    "|": 91,
    "}": 92,
    "~": 93,
    "¡": 39832,
    "¢": 56394,
    "£": 21651,
    "¤": 81538,
    "¥": 81093,
    "¦": 64621,
    "§": 17851,
    "¨": 75005,
    "©": 20043,
    "ª": 63905,
    "«": 23703,
    "¬": 82093,
    "®": 11909,
    "¯": 33985,
    "°": 11616,
    "±": 37021,
    "²": 29456,
    "³": 43201,
    "´": 28111,
    "µ": 73048,
    "¶": 54509,
    "·": 13935,
    "¸": 144404,
    "¹": 59497,
    "º": 28200,
    "»": 12992,
    "¼": 41873,
    "½": 26062,
    "¾": 67396,
    "¿": 30182,
    "À": 71953,
    "Á": 43701,
    "Â": 32795,
    "Ã": 18791,
    "Ä": 86975,
    "Å": 144044,
    "Æ": 144839,
    "Ç": 45913,
    "È": 142505,
    "É": 26789,
    "Ê": 127229,
    "Ë": 144679,
    "Ì": 144201,
    "Í": 52220,
    "Î": 71807,
    "Ï": 144865,
    "Ð": 95199,
    "Ñ": 71354,
    "Ò": 144086,
    "Ó": 39062,
    "Ô": 131371,
    "Õ": 144335,
    "Ö": 63361,
    "×": 17568,
    "Ø": 144050,
    "Ù": 144174,
    "Ú": 70494,
    "Û": 144897,
    "Ü": 52491,
    "Ý": 133648,
    "Þ": 144655,
    "ß": 7997,
    "à": 6362,
    "á": 1953,
    "â": 8835,
    "ã": 3202,
    "ä": 2305,
    "å": 3785,
    "æ": 9191,
    "ç": 3131,
    "è": 4458,
    "é": 963,
    "ê": 5498,
    "ë": 12179,
    "ì": 23531,
    "í": 2426,
    "î": 24137,
    "ï": 37572,
    "ð": 67700,
    "ñ": 5653,
    "ò": 22190,
    "ó": 1794,
    "ô": 9574,
    "õ": 11151,
    "ö": 2956,
    "÷": 144422,
    "ø": 6151,
    "ù": 14926,
    "ú": 6654,
    "û": 29772,
    "ü": 2391,
    "ý": 19622,
    "þ": 134629,
    "ÿ": 145059,
    "\u0000": 188,
    "\u0001": 189,
    "\u0002": 190,
    "\u0003": 191,
    "\u0004": 192,
    "\u0005": 193,
    "\u0006": 194,
    "\u0007": 195,
    "\b": 196,
    "\t": 197,
    "\n": 198,
    "\u000b": 199,
    "\f": 200,
    "\r": 201,
    "\u000e": 202,
    "\u000f": 203,
    "\u0010": 204,
    "\u0011": 205,
    "\u0012": 206,
    "\u0013": 207,
    "\u0014": 208,
    "\u0015": 209,
    "\u0016": 210,
    "\u0017": 211,
    "\u0018": 212,
    "\u0019": 213,
    "\u001a": 214,
    "\u001b": 215,
    "\u001c": 216,
    "\u001d": 217,
    "\u001e": 218,
    "\u001f": 219,
    " ": 220,
    "": 221,
    "": 41416,
    "": 223,
    "": 224,
    "": 225,
    "": 226,
    "": 227,
    "": 228,
    "": 229,
    "": 230,
    "": 231,
    "": 232,
    "": 233,
    "": 234,
    "": 235,
    "": 236,
    "": 237,
    "": 238,
    "": 239,
    "": 75151,
    "": 241,
    "": 242,
    "": 243,
    "": 244,
    "": 245,
    "": 246,
    "": 247,
    "": 248,
    "": 249,
    "": 250,
    "": 251,
    "": 252,
    "": 253,
    " ": 4102,
    "­": 5760,
    "  ": 256,
    "    ": 257,
    "in": 258,
    " t": 259,
    "        ": 260,
    "er": 261,
    "   ": 262,
    "on": 263,
    " a": 264,
    "re": 265,
    "at": 266,
    "st": 267,
    "en": 268,
    "or": 269,
    " th": 270,
    "\n\n": 271,
    " c": 272,
    "le": 273,
    " s": 274,
    "it": 275,
    "an": 276,
    "ar": 277,
    "al": 278,
    " the": 279,
    ";\n": 280,
    " p": 281,
    " f": 282,
    "ou": 283,
    " =": 284,
    "is": 285,
    "       ": 286,
    "ing": 287,
    "es": 288,
    " w": 289,
    "ion": 290,
    "ed": 291,
    "ic": 292,
    " b": 293,
    " d": 294,
    "et": 295,
    " m": 296,
    " o": 297,
    "\t\t": 298,
    "ro": 299,
    "as": 300,
    "el": 301,
    "ct": 302,
    "nd": 303,
    " in": 304,
    " h": 305,
    "ent": 306,
    "id": 307,
    " n": 308,
    "am": 309,
    "           ": 310,
    " to": 311,
    " re": 312,
    "--": 313,
    " {": 314,
    " of": 315,
    "om": 316,
    ");\n": 317,
    "im": 318,
    "\r\n": 319,
    " (": 320,
    "il": 321,
    "//": 322,
    " and": 323,
    "ur": 324,
    "se": 325,
    " l": 326,
    "ex": 327,
    " S": 328,
    "ad": 329,
    " \"": 330,
    "ch": 331,
    "ut": 332,
    "if": 333,
    "**": 334,
    " }": 335,
    "em": 336,
    "ol": 337,
    "                ": 338,
    "th": 339,
    ")\n": 340,
    " {\n": 341,
    " g": 342,
    "ig": 343,
    "iv": 344,
    ",\n": 345,
    "ce": 346,
    "od": 347,
    " v": 348,
    "ate": 349,
    " T": 350,
    "ag": 351,
    "ay": 352,
    " *": 353,
    "ot": 354,
    "us": 355,
    " C": 356,
    " st": 357,
    " I": 358,
    "un": 359,
    "ul": 360,
    "ue": 361,
    " A": 362,
    "ow": 363,
    " '": 364,
    "ew": 365,
    " <": 366,
    "ation": 367,
    "()": 368,
    " for": 369,
    "ab": 370,
    "ort": 371,
    "um": 372,
    "ame": 373,
    " is": 374,
    "pe": 375,
    "tr": 376,
    "ck": 377,
    "â": 378,
    " y": 379,
    "ist": 380,
    "----": 381,
    ".\n\n": 382,
    "he": 383,
    " e": 384,
    "lo": 385,
    " M": 386,
    " be": 387,
    "ers": 388,
    " on": 389,
    " con": 390,
    "ap": 391,
    "ub": 392,
    " P": 393,
    "               ": 394,
    "ass": 395,
    "int": 396,
    ">\n": 397,
    "ly": 398,
    "urn": 399,
    " $": 400,
    ";\n\n": 401,
    "av": 402,
    "port": 403,
    "ir": 404,
    "->": 405,
    "nt": 406,
    "ction": 407,
    "end": 408,
    " de": 409,
    "ith": 410,
    "out": 411,
    "turn": 412,
    "our": 413,
    "     ": 414,
    "lic": 415,
    "res": 416,
    "pt": 417,
    "==": 418,
    " this": 419,
    " wh": 420,
    " if": 421,
    " D": 422,
    "ver": 423,
    "age": 424,
    " B": 425,
    "ht": 426,
    "ext": 427,
    "=\"": 428,
    " that": 429,
    "****": 430,
    " R": 431,
    " it": 432,
    "ess": 433,
    " F": 434,
    " r": 435,
    "os": 436,
    "and": 437,
    " as": 438,
    "ect": 439,
    "ke": 440,
    "rom": 441,
    " //": 442,
    "con": 443,
    " L": 444,
    "(\"": 445,
    "qu": 446,
    "lass": 447,
    " with": 448,
    "iz": 449,
    "de": 450,
    " N": 451,
    " al": 452,
    "op": 453,
    "up": 454,
    "get": 455,
    " }\n": 456,
    "ile": 457,
    " an": 458,
    "ata": 459,
    "ore": 460,
    "ri": 461,
    " pro": 462,
    ";\r\n": 463,
    "\t\t\t\t": 464,
    "ter": 465,
    "ain": 466,
    " W": 467,
    " E": 468,
    " com": 469,
    " return": 470,
    "art": 471,
    " H": 472,
    "ack": 473,
    "import": 474,
    "ublic": 475,
    " or": 476,
    "est": 477,
    "ment": 478,
    " G": 479,
    "able": 480,
    " -": 481,
    "ine": 482,
    "ill": 483,
    "ind": 484,
    "ere": 485,
    "::": 486,
    "ity": 487,
    " +": 488,
    " tr": 489,
    "elf": 490,
    "ight": 491,
    "('": 492,
    "orm": 493,
    "ult": 494,
    "str": 495,
    "..": 496,
    "\",": 497,
    " you": 498,
    "ype": 499,
    "pl": 500,
    " new": 501,
    " j": 502,
    "                   ": 503,
    " from": 504,
    " ex": 505,
    " O": 506,
    "ld": 507,
    " [": 508,
    "oc": 509,
    ":\n": 510,
    " se": 511,
    " le": 512,
    "--------": 513,
    ".s": 514,
    "{\n": 515,
    "',": 516,
    "ant": 517,
    " at": 518,
    "ase": 519,
    ".c": 520,
    " ch": 521,
    "</": 522,
    "ave": 523,
    "ang": 524,
    " are": 525,
    " int": 526,
    "’": 527,
    "_t": 528,
    "ert": 529,
    "ial": 530,
    "act": 531,
    "}\n": 532,
    "ive": 533,
    "ode": 534,
    "ost": 535,
    " class": 536,
    " not": 537,
    "og": 538,
    "ord": 539,
    "alue": 540,
    "all": 541,
    "ff": 542,
    "();\n": 543,
    "ont": 544,
    "ime": 545,
    "are": 546,
    " U": 547,
    " pr": 548,
    " :": 549,
    "ies": 550,
    "ize": 551,
    "ure": 552,
    " by": 553,
    "ire": 554,
    " }\n\n": 555,
    ".p": 556,
    " sh": 557,
    "ice": 558,
    "ast": 559,
    "ption": 560,
    "tring": 561,
    "ok": 562,
    "__": 563,
    "cl": 564,
    "##": 565,
    " he": 566,
    "ard": 567,
    ").": 568,
    " @": 569,
    "iew": 570,
    "\t\t\t": 571,
    " was": 572,
    "ip": 573,
    "this": 574,
    " u": 575,
    " The": 576,
    "ide": 577,
    "ace": 578,
    "ib": 579,
    "ac": 580,
    "rou": 581,
    " we": 582,
    "ject": 583,
    " public": 584,
    "ak": 585,
    "ve": 586,
    "ath": 587,
    "oid": 588,
    " =>": 589,
    "ust": 590,
    "que": 591,
    " res": 592,
    "))": 593,
    "'s": 594,
    " k": 595,
    "ans": 596,
    "yst": 597,
    "unction": 598,
    "********": 599,
    " i": 600,
    " us": 601,
    "pp": 602,
    "one": 603,
    "ail": 604,
    "====": 605,
    "name": 606,
    " str": 607,
    " /": 608,
    " &": 609,
    "ach": 610,
    "div": 611,
    "ystem": 612,
    "ell": 613,
    " have": 614,
    "err": 615,
    "ould": 616,
    "ull": 617,
    "pon": 618,
    " J": 619,
    "_p": 620,
    " ==": 621,
    "ign": 622,
    "St": 623,
    ".\n": 624,
    " pl": 625,
    ");\n\n": 626,
    "form": 627,
    "put": 628,
    "ount": 629,
    "}\n\n": 630,
    "dd": 631,
    "ite": 632,
    " get": 633,
    "rr": 634,
    "ome": 635,
    " â": 636,
    "aram": 637,
    "cc": 638,
    " */": 639,
    "ER": 640,
    "In": 641,
    "les": 642,
    "_s": 643,
    "ong": 644,
    "ie": 645,
    " can": 646,
    " V": 647,
    "erv": 648,
    "pr": 649,
    " un": 650,
    "row": 651,
    "ber": 652,
    " do": 653,
    "ll": 654,
    " el": 655,
    " self": 656,
    "ated": 657,
    "ary": 658,
    " .": 659,
    "']": 660,
    "ud": 661,
    " en": 662,
    " Th": 663,
    "                       ": 664,
    "te": 665,
    "_c": 666,
    "uct": 667,
    " ab": 668,
    "ork": 669,
    ".get": 670,
    " #": 671,
    "aw": 672,
    "ress": 673,
    "ob": 674,
    "Name": 675,
    "app": 676,
    "['": 677,
    " all": 678,
    "ory": 679,
    "ition": 680,
    "ance": 681,
    "ear": 682,
    " cont": 683,
    "vent": 684,
    "ia": 685,
    " will": 686,
    "IN": 687,
    "         ": 688,
    "return": 689,
    " </": 690,
    "data": 691,
    ")\n\n": 692,
    "Re": 693,
    "ple": 694,
    "ild": 695,
    "ther": 696,
    " your": 697,
    "\"\n": 698,
    "($": 699,
    " out": 700,
    "),": 701,
    " has": 702,
    "String": 703,
    "so": 704,
    " up": 705,
    "ax": 706,
    " def": 707,
    " bo": 708,
    "ge": 709,
    "alse": 710,
    "ON": 711,
    "per": 712,
    "ich": 713,
    " but": 714,
    " \n": 715,
    " _": 716,
    "_m": 717,
    "add": 718,
    "quest": 719,
    "odel": 720,
    "self": 721,
    "ery": 722,
    "ft": 723,
    "ens": 724,
    "////": 725,
    "ake": 726,
    ".C": 727,
    " go": 728,
    " function": 729,
    " K": 730,
    "ivate": 731,
    " im": 732,
    " const": 733,
    ".t": 734,
    " */\n": 735,
    ");\r\n": 736,
    " void": 737,
    " set": 738,
    " System": 739,
    "cri": 740,
    "()\n": 741,
    "li": 742,
    "\tif": 743,
    ".m": 744,
    "ally": 745,
    "set": 746,
    "ep": 747,
    "’s": 748,
    "bo": 749,
    "def": 750,
    "',\n": 751,
    " me": 752,
    " !": 753,
    "atch": 754,
    "\">": 755,
    "\",\n": 756,
    "ec": 757,
    " In": 758,
    "ph": 759,
    " |": 760,
    "_f": 761,
    " var": 762,
    "ence": 763,
    "Id": 764,
    "ree": 765,
    "ink": 766,
    "lect": 767,
    "ug": 768,
    "eth": 769,
    " else": 770,
    "----------------": 771,
    "cont": 772,
    " so": 773,
    "atic": 774,
    " lo": 775,
    "pro": 776,
    "ton": 777,
    "ss": 778,
    "own": 779,
    "abel": 780,
    "oint": 781,
    "ous": 782,
    "eld": 783,
    "ST": 784,
    "The": 785,
    "                                ": 786,
    "RE": 787,
    "\":": 788,
    "olor": 789,
    "tp": 790,
    "eg": 791,
    "key": 792,
    "ude": 793,
    " St": 794,
    "ound": 795,
    " ar": 796,
    "\");\n": 797,
    "ener": 798,
    "ser": 799,
    "bject": 800,
    "essage": 801,
    "fer": 802,
    " more": 803,
    "ations": 804,
    "ents": 805,
    " his": 806,
    " they": 807,
    ".S": 808,
    " Y": 809,
    "use": 810,
    "ne": 811,
    "ish": 812,
    "old": 813,
    "_d": 814,
    "io": 815,
    "ield": 816,
    " per": 817,
    "Cont": 818,
    "ings": 819,
    "####": 820,
    " data": 821,
    " sa": 822,
    "ef": 823,
    "fo": 824,
    " one": 825,
    "eng": 826,
    " dis": 827,
    "AT": 828,
    " name": 829,
    " true": 830,
    "val": 831,
    "led": 832,
    ".f": 833,
    " ne": 834,
    " end": 835,
    ".T": 836,
    "cre": 837,
    "ark": 838,
    "log": 839,
    "Ex": 840,
    "error": 841,
    "_id": 842,
    "urre": 843,
    "ange": 844,
    " null": 845,
    "rray": 846,
    " my": 847,
    "pan": 848,
    "ict": 849,
    "ator": 850,
    "View": 851,
    "List": 852,
    "\treturn": 853,
    "”": 854,
    " pre": 855,
    " x": 856,
    "clude": 857,
    "arg": 858,
    "ov": 859,
    ".h": 860,
    " >": 861,
    " their": 862,
    "')": 863,
    "irst": 864,
    "ick": 865,
    "gh": 866,
    "LE": 867,
    "OR": 868,
    " private": 869,
    "tem": 870,
    "\r\n\r\n": 871,
    "user": 872,
    " )": 873,
    "com": 874,
    ".A": 875,
    "\";\n": 876,
    " id": 877,
    "read": 878,
    " who": 879,
    "_b": 880,
    "\">\n": 881,
    " time": 882,
    " man": 883,
    "ry": 884,
    "========": 885,
    "roup": 886,
    "rop": 887,
    "public": 888,
    "vel": 889,
    "umber": 890,
    "ble": 891,
    " which": 892,
    "****************": 893,
    " any": 894,
    " false": 895,
    "we": 896,
    " value": 897,
    " li": 898,
    "\")": 899,
    "nder": 900,
    "gr": 901,
    " no": 902,
    "param": 903,
    "fig": 904,
    ".com": 905,
    " app": 906,
    "_l": 907,
    "ions": 908,
    ".D": 909,
    " Ch": 910,
    " about": 911,
    " add": 912,
    " su": 913,
    " string": 914,
    "ID": 915,
    " over": 916,
    "string": 917,
    ".l": 918,
    "ource": 919,
    "_C": 920,
    "]\n": 921,
    " qu": 922,
    " String": 923,
    "ca": 924,
    "SE": 925,
    " ro": 926,
    "sh": 927,
    "ual": 928,
    "Type": 929,
    "son": 930,
    "new": 931,
    "ern": 932,
    " ag": 933,
    "AR": 934,
    "];\n": 935,
    "].": 936,
    " ?": 937,
    "ical": 938,
    " des": 939,
    "uth": 940,
    "ix": 941,
    "ays": 942,
    " type": 943,
    "'t": 944,
    "ault": 945,
    " inter": 946,
    "var": 947,
    ".b": 948,
    " part": 949,
    ".d": 950,
    "urrent": 951,
    "IT": 952,
    "EN": 953,
    "enc": 954,
    "(f": 955,
    "ra": 956,
    "value": 957,
    "cho": 958,
    "utton": 959,
    "ose": 960,
    " !=": 961,
    "ater": 962,
    "reate": 964,
    "oll": 965,
    "pos": 966,
    "yle": 967,
    "ng": 968,
    "AL": 969,
    "using": 970,
    "ames": 971,
    " {\r\n": 972,
    "ates": 973,
    "ely": 974,
    " work": 975,
    " em": 976,
    "inal": 977,
    " sp": 978,
    " when": 979,
    ".set": 980,
    "      ": 981,
    "):\n": 982,
    "to": 983,
    "quire": 984,
    "indow": 985,
    "lement": 986,
    "pect": 987,
    "ash": 988,
    "[i": 989,
    " use": 990,
    ".F": 991,
    "pec": 992,
    " ad": 993,
    "ove": 994,
    "ception": 995,
    "ength": 996,
    "include": 997,
    "ader": 998,
    "                           ": 999,
    "atus": 1000,
    "Th": 1001,
    "itle": 1002,
    "rit": 1003,
    "void": 1004,
    "().": 1005,
    "(\n": 1006,
    " off": 1007,
    " other": 1008,
    " &&": 1009,
    "';\n": 1010,
    "ms": 1011,
    " been": 1012,
    " te": 1013,
    "ml": 1014,
    "co": 1015,
    "nc": 1016,
    "ervice": 1017,
    " %": 1018,
    "**\n": 1019,
    "ann": 1020,
    "ade": 1021,
    "\n\n\n\n": 1022,
    "lock": 1023,
    "const": 1024,
    "ponse": 1025,
    " sup": 1026,
    "++": 1027,
    "date": 1028,
    " acc": 1029,
    " had": 1030,
    " bu": 1031,
    " Re": 1032,
    " were": 1033,
    " file": 1034,
    " would": 1035,
    " “": 1036,
    "ven": 1037,
    "iss": 1038,
    " our": 1039,
    "class": 1040,
    "raw": 1041,
    " year": 1042,
    "Data": 1043,
    " val": 1044,
    " some": 1045,
    "fter": 1046,
    "ys": 1047,
    " ///": 1048,
    "round": 1049,
    "view": 1050,
    " pe": 1051,
    " there": 1052,
    " said": 1053,
    "du": 1054,
    "of": 1055,
    "line": 1056,
    "/*": 1057,
    "duct": 1058,
    " her": 1059,
    "             ": 1060,
    "Res": 1061,
    " co": 1062,
    " comm": 1063,
    "ise": 1064,
    "min": 1065,
    "    \n": 1066,
    "#include": 1067,
    "ethod": 1068,
    ".P": 1069,
    "ute": 1070,
    " ass": 1071,
    "Int": 1072,
    "ask": 1073,
    "loc": 1074,
    " like": 1075,
    "ody": 1076,
    " let": 1077,
    "load": 1078,
    " am": 1079,
    "rol": 1080,
    " gr": 1081,
    "yp": 1082,
    " also": 1083,
    " It": 1084,
    "url": 1085,
    "ific": 1086,
    "ors": 1087,
    "_P": 1088,
    "_n": 1089,
    "igh": 1090,
    " than": 1091,
    "Com": 1092,
    "AN": 1093,
    "UL": 1094,
    "ating": 1095,
    " This": 1096,
    "ref": 1097,
    "_S": 1098,
    " static": 1099,
    "roll": 1100,
    " just": 1101,
    " result": 1102,
    "ian": 1103,
    "idth": 1104,
    " them": 1105,
    "));\n": 1106,
    "der": 1107,
    "reak": 1108,
    "Con": 1109,
    "://": 1110,
    "ule": 1111,
    "...": 1112,
    "arch": 1113,
    "ement": 1114,
    " <<": 1115,
    "ush": 1116,
    "ense": 1117,
    "arr": 1118,
    " into": 1119,
    "cess": 1120,
    "amp": 1121,
    "ied": 1122,
    "ument": 1123,
    " \\": 1124,
    "],": 1125,
    "wo": 1126,
    "als": 1127,
    " what": 1128,
    "anc": 1129,
    "Value": 1130,
    "='": 1131,
    "olum": 1132,
    " pos": 1133,
    "ages": 1134,
    "ayer": 1135,
    " sc": 1136,
    "ues": 1137,
    "\")\n": 1138,
    "_T": 1139,
    " list": 1140,
    "(s": 1141,
    " case": 1142,
    "Ch": 1143,
    "\t\t\t\t\t": 1144,
    "////////": 1145,
    "ponent": 1146,
    " z": 1147,
    " kn": 1148,
    "let": 1149,
    "DE": 1150,
    "red": 1151,
    " fe": 1152,
    " },\n": 1153,
    " ,": 1154,
    "(t": 1155,
    " first": 1156,
    "');\n": 1157,
    "word": 1158,
    " import": 1159,
    " act": 1160,
    " char": 1161,
    "CT": 1162,
    " Tr": 1163,
    "ople": 1164,
    "={": 1165,
    "\tf": 1166,
    "ient": 1167,
    "cent": 1168,
    ".j": 1169,
    "lection": 1170,
    "))\n": 1171,
    " only": 1172,
    " print": 1173,
    "mer": 1174,
    ".W": 1175,
    "ock": 1176,
    " --": 1177,
    "Text": 1178,
    " op": 1179,
    "ank": 1180,
    " its": 1181,
    " back": 1182,
    "[\"": 1183,
    " need": 1184,
    " cl": 1185,
    " sub": 1186,
    " la": 1187,
    "((": 1188,
    ".\"": 1189,
    "Object": 1190,
    " start": 1191,
    "file": 1192,
    "(self": 1193,
    "ner": 1194,
    "ey": 1195,
    " user": 1196,
    " ent": 1197,
    " Com": 1198,
    "its": 1199,
    " Con": 1200,
    "ouble": 1201,
    "ower": 1202,
    "item": 1203,
    "very": 1204,
    " We": 1205,
    "lick": 1206,
    " Q": 1207,
    "php": 1208,
    "ttp": 1209,
    "':": 1210,
    "ics": 1211,
    " under": 1212,
    " *\n": 1213,
    ".L": 1214,
    ");": 1215,
    "ices": 1216,
    " reg": 1217,
    ")\r\n": 1218,
    "\tpublic": 1219,
    "SS": 1220,
    " then": 1221,
    "reat": 1222,
    "ious": 1223,
    ".G": 1224,
    "ek": 1225,
    "irect": 1226,
    "heck": 1227,
    "cript": 1228,
    "ning": 1229,
    " Un": 1230,
    " may": 1231,
    " Wh": 1232,
    "Bo": 1233,
    "Item": 1234,
    "struct": 1235,
    ".st": 1236,
    "ream": 1237,
    "ible": 1238,
    "loat": 1239,
    " org": 1240,
    "und": 1241,
    "sum": 1242,
    "_in": 1243,
    "../": 1244,
    "_M": 1245,
    " how": 1246,
    "rite": 1247,
    "'\n": 1248,
    "To": 1249,
    "ww": 1250,
    " people": 1251,
    "index": 1252,
    ".n": 1253,
    "http": 1254,
    "(m": 1255,
    "ector": 1256,
    " ind": 1257,
    " jav": 1258,
    "],\n": 1259,
    " He": 1260,
    "_st": 1261,
    "ful": 1262,
    "ole": 1263,
    "){\n": 1264,
    " should": 1265,
    "opy": 1266,
    "elp": 1267,
    "ier": 1268,
    "_name": 1269,
    "erson": 1270,
    "ION": 1271,
    "ote": 1272,
    " test": 1273,
    " bet": 1274,
    "rror": 1275,
    "ular": 1276,
    "ã": 1277,
    " Ð": 1278,
    "bs": 1279,
    "ting": 1280,
    " make": 1281,
    "Tr": 1282,
    " after": 1283,
    "arget": 1284,
    "RO": 1285,
    "olumn": 1286,
    "rc": 1287,
    "_re": 1288,
    "define": 1289,
    " right": 1290,
    "right": 1291,
    "day": 1292,
    " long": 1293,
    "[]": 1294,
    "(p": 1295,
    "td": 1296,
    "cond": 1297,
    " Pro": 1298,
    " rem": 1299,
    "ptions": 1300,
    "vid": 1301,
    ".g": 1302,
    " ext": 1303,
    " __": 1304,
    "')\n": 1305,
    "pace": 1306,
    "mp": 1307,
    " min": 1308,
    "stance": 1309,
    "air": 1310,
    "action": 1311,
    "wh": 1312,
    "type": 1313,
    "util": 1314,
    "ait": 1315,
    "<?": 1316,
    "IC": 1317,
    "text": 1318,
    " ph": 1319,
    " fl": 1320,
    ".M": 1321,
    "ccess": 1322,
    "br": 1323,
    "fore": 1324,
    "ersion": 1325,
    "),\n": 1326,
    ".re": 1327,
    "ateg": 1328,
    " loc": 1329,
    "ins": 1330,
    "-s": 1331,
    "trib": 1332,
    " Int": 1333,
    " array": 1334,
    ",\"": 1335,
    "Pro": 1336,
    "(c": 1337,
    "ession": 1338,
    ">\n\n": 1339,
    " she": 1340,
    "\"]": 1341,
    "aph": 1342,
    " exp": 1343,
    "erty": 1344,
    " Se": 1345,
    " par": 1346,
    "unc": 1347,
    "ET": 1348,
    " read": 1349,
    "print": 1350,
    " rel": 1351,
    " form": 1352,
    " dr": 1353,
    "Exception": 1354,
    "input": 1355,
    " trans": 1356,
    "########": 1357,
    "order": 1358,
    "By": 1359,
    " aw": 1360,
    "ities": 1361,
    "uff": 1362,
    "play": 1363,
    ".add": 1364,
    " –": 1365,
    " want": 1366,
    " comp": 1367,
    "ments": 1368,
    " ||": 1369,
    "az": 1370,
    "be": 1371,
    " number": 1372,
    " require": 1373,
    " Ex": 1374,
    " col": 1375,
    " key": 1376,
    "ember": 1377,
    " two": 1378,
    " size": 1379,
    " where": 1380,
    "UT": 1381,
    "result": 1382,
    "                               ": 1383,
    "ough": 1384,
    "orld": 1385,
    "ood": 1386,
    "uch": 1387,
    "ative": 1388,
    "ger": 1389,
    "arent": 1390,
    " /*": 1391,
    " arg": 1392,
    " while": 1393,
    "(this": 1394,
    " rec": 1395,
    " dif": 1396,
    "State": 1397,
    " spec": 1398,
    "ride": 1399,
    "_F": 1400,
    " look": 1401,
    "AM": 1402,
    "ility": 1403,
    "eter": 1404,
    "’t": 1405,
    "\n\n\n": 1406,
    "ayout": 1407,
    "--------------------------------": 1408,
    "ager": 1409,
    " could": 1410,
    " br": 1411,
    "ends": 1412,
    "ures": 1413,
    " know": 1414,
    "ets": 1415,
    " If": 1416,
    " Sh": 1417,
    ".w": 1418,
    "back": 1419,
    " ser": 1420,
    " +=": 1421,
    " fr": 1422,
    "());\n": 1423,
    " hand": 1424,
    "Ind": 1425,
    "ULL": 1426,
    "Im": 1427,
    "();\n\n": 1428,
    " most": 1429,
    " try": 1430,
    " now": 1431,
    "rough": 1432,
    ">\r\n": 1433,
    "ackage": 1434,
    " him": 1435,
    "._": 1436,
    "ify": 1437,
    " break": 1438,
    " );\n": 1439,
    "ren": 1440,
    "#define": 1441,
    "itt": 1442,
    " ap": 1443,
    "\tc": 1444,
    "(n": 1445,
    " You": 1446,
    ":\n\n": 1447,
    "-m": 1448,
    " every": 1449,
    "ustom": 1450,
    "lient": 1451,
    "ocument": 1452,
    "cription": 1453,
    "Error": 1454,
    "-b": 1455,
    "о": 1456,
    "][": 1457,
    "trans": 1458,
    " point": 1459,
    " std": 1460,
    " fil": 1461,
    "Time": 1462,
    " mod": 1463,
    " ->": 1464,
    " error": 1465,
    "ah": 1466,
    " text": 1467,
    "roller": 1468,
    "lose": 1469,
    "ql": 1470,
    " pol": 1471,
    "></": 1472,
    " show": 1473,
    "User": 1474,
    "ased": 1475,
    " {\n\n": 1476,
    " find": 1477,
    "а": 1478,
    "ED": 1479,
    "span": 1480,
    "enu": 1481,
    " current": 1482,
    " used": 1483,
    "cept": 1484,
    "clud": 1485,
    " play": 1486,
    " log": 1487,
    "ution": 1488,
    "fl": 1489,
    " see": 1490,
    "indows": 1491,
    " help": 1492,
    " these": 1493,
    " pass": 1494,
    " down": 1495,
    " even": 1496,
    "ason": 1497,
    "uild": 1498,
    "from": 1499,
    "(d": 1500,
    " bl": 1501,
    "label": 1502,
    "else": 1503,
    "е": 1504,
    " (!": 1505,
    "ized": 1506,
    "(),": 1507,
    " ob": 1508,
    " item": 1509,
    "ump": 1510,
    "UR": 1511,
    "orn": 1512,
    " don": 1513,
    "Se": 1514,
    "man": 1515,
    "ample": 1516,
    "tn": 1517,
    "================": 1518,
    "He": 1519,
    "gram": 1520,
    " did": 1521,
    "wn": 1522,
    "_h": 1523,
    "iver": 1524,
    " sm": 1525,
    " through": 1526,
    " An": 1527,
    "che": 1528,
    " inv": 1529,
    "ouse": 1530,
    " es": 1531,
    " New": 1532,
    "export": 1533,
    "mary": 1534,
    "uto": 1535,
    "ler": 1536,
    " last": 1537,
    " event": 1538,
    "try": 1539,
    "ï¼": 1540,
    "ily": 1541,
    "igned": 1542,
    "ines": 1543,
    "ollow": 1544,
    "icense": 1545,
    "sole": 1546,
    "lear": 1547,
    "(int": 1548,
    " again": 1549,
    " high": 1550,
    "html": 1551,
    "Index": 1552,
    "uthor": 1553,
    " /**\n": 1554,
    " line": 1555,
    "Event": 1556,
    "_D": 1557,
    " does": 1558,
    "itial": 1559,
    " cr": 1560,
    "ars": 1561,
    " tem": 1562,
    "cause": 1563,
    "face": 1564,
    " `": 1565,
    "_A": 1566,
    "Button": 1567,
    "ature": 1568,
    "ected": 1569,
    "ES": 1570,
    "ister": 1571,
    "\t\n": 1572,
    " before": 1573,
    "ale": 1574,
    "other": 1575,
    " because": 1576,
    "roid": 1577,
    " ed": 1578,
    "ik": 1579,
    "reg": 1580,
    " De": 1581,
    " dist": 1582,
    "},\n": 1583,
    " state": 1584,
    " cons": 1585,
    "rint": 1586,
    "att": 1587,
    " here": 1588,
    "ined": 1589,
    " final": 1590,
    " \"\"": 1591,
    "Key": 1592,
    "LO": 1593,
    " del": 1594,
    "pty": 1595,
    "thing": 1596,
    " And": 1597,
    " run": 1598,
    " X": 1599,
    "ym": 1600,
    ".app": 1601,
    " very": 1602,
    "ces": 1603,
    "_N": 1604,
    "ared": 1605,
    "ward": 1606,
    "list": 1607,
    "ited": 1608,
    "olog": 1609,
    "itch": 1610,
    "Box": 1611,
    "ife": 1612,
    " ac": 1613,
    " model": 1614,
    " mon": 1615,
    " way": 1616,
    "lete": 1617,
    " call": 1618,
    " att": 1619,
    " cal": 1620,
    "vert": 1621,
    " dec": 1622,
    "lease": 1623,
    "oun": 1624,
    " });\n": 1625,
    "fr": 1626,
    "formation": 1627,
    "etail": 1628,
    " num": 1629,
    "aj": 1630,
    "query": 1631,
    " well": 1632,
    " object": 1633,
    " As": 1634,
    " years": 1635,
    "Color": 1636,
    "IS": 1637,
    " default": 1638,
    "Wh": 1639,
    " ins": 1640,
    "aint": 1641,
    " java": 1642,
    " sim": 1643,
    " Ar": 1644,
    "mon": 1645,
    "til": 1646,
    "();\r\n": 1647,
    "):": 1648,
    "Set": 1649,
    "atter": 1650,
    " view": 1651,
    " pres": 1652,
    "array": 1653,
    "We": 1654,
    "At": 1655,
    " bel": 1656,
    " many": 1657,
    "Man": 1658,
    "ender": 1659,
    " being": 1660,
    " good": 1661,
    "\t\t\t\t\t\t": 1662,
    "ational": 1663,
    "ware": 1664,
    ".log": 1665,
    "{\r\n": 1666,
    " using": 1667,
    "_B": 1668,
    " :=": 1669,
    "_w": 1670,
    "ists": 1671,
    "lish": 1672,
    " stud": 1673,
    " Al": 1674,
    " gu": 1675,
    "config": 1676,
    "uring": 1677,
    "time": 1678,
    "oken": 1679,
    "amespace": 1680,
    " request": 1681,
    " child": 1682,
    " Ã": 73780,
    "lob": 1684,
    " param": 1685,
    " }\r\n": 1686,
    " echo": 1687,
    "function": 1688,
    "********************************": 1689,
    "ps": 1690,
    "Element": 1691,
    "alk": 1692,
    "lication": 1693,
    "by": 1694,
    "Size": 1695,
    "rawing": 1696,
    " person": 1697,
    "                 ": 1698,
    "\\n": 1699,
    "object": 1700,
    "ince": 1701,
    "En": 1702,
    "File": 1703,
    "uf": 1704,
    "ffect": 1705,
    "AC": 1706,
    " style": 1707,
    "summary": 1708,
    " que": 1709,
    "_r": 1710,
    " ($": 1711,
    "Model": 1712,
    "ident": 1713,
    " method": 1714,
    "IL": 1715,
    "ott": 1716,
    "less": 1717,
    "ING": 1718,
    " ()": 1719,
    " expect": 1720,
    "ync": 1721,
    "package": 1722,
    "urs": 1723,
    " prot": 1724,
    "./": 1725,
    "pre": 1726,
    " )\n": 1727,
    "ma": 1728,
    " sur": 1729,
    " found": 1730,
    "Info": 1731,
    "par": 1732,
    "imes": 1733,
    ".e": 1734,
    "ains": 1735,
    " post": 1736,
    "-d": 1737,
    "olean": 1738,
    " sl": 1739,
    "PE": 1740,
    " such": 1741,
    "select": 1742,
    "ainer": 1743,
    " think": 1744,
    " differ": 1745,
    ".r": 1746,
    "/**\n": 1747,
    "FF": 1748,
    "ool": 1749,
    "plate": 1750,
    "qual": 1751,
    " For": 1752,
    " much": 1753,
    "uc": 1754,
    "(new": 1755,
    "odule": 1756,
    " som": 1757,
    " http": 1758,
    " List": 1759,
    " count": 1760,
    " inst": 1761,
    "char": 1762,
    "mit": 1763,
    ".id": 1764,
    "aking": 1765,
    " gener": 1766,
    "px": 1767,
    "vice": 1768,
    "_data": 1769,
    " NULL": 1770,
    "}\r\n": 1771,
    "idd": 1772,
    "。": 1773,
    " med": 1774,
    "org": 1775,
    "ider": 1776,
    "ache": 1777,
    "work": 1778,
    " check": 1779,
    "ween": 1780,
    " ((": 1781,
    "the": 1782,
    "ants": 1783,
    "><": 1784,
    ".B": 1785,
    "-c": 1786,
    " open": 1787,
    " est": 1788,
    "        \n": 1789,
    " next": 1790,
    "IM": 1791,
    "т": 1792,
    "OT": 1793,
    " follow": 1795,
    "content": 1796,
    "            ": 1797,
    " includ": 1798,
    "HE": 1799,
    " Res": 1800,
    " href": 1801,
    "и": 1802,
    " car": 1803,
    "ypes": 1804,
    "image": 1805,
    "Un": 1806,
    " bool": 1807,
    "AD": 1808,
    " game": 1809,
    ".Form": 1810,
    "rows": 1811,
    "*/": 1812,
    "velop": 1813,
    ".Drawing": 1814,
    " path": 1815,
    "ision": 1816,
    " each": 1817,
    " Pl": 1818,
    "_type": 1819,
    "Path": 1820,
    "nection": 1821,
    " av": 1822,
    "').": 1823,
    " support": 1824,
    "ENT": 1825,
    "rem": 1826,
    "\").": 1827,
    " own": 1828,
    " cor": 1829,
    "count": 1830,
    "miss": 1831,
    "ually": 1832,
    " mem": 1833,
    "std": 1834,
    "ience": 1835,
    "search": 1836,
    "\"\n\n": 1837,
    "Form": 1838,
    " sex": 1839,
    "ename": 1840,
    " sign": 1841,
    " et": 1842,
    "          ": 1843,
    "','": 1844,
    " App": 1845,
    " those": 1846,
    "off": 1847,
    " err": 1848,
    " system": 1849,
    " best": 1850,
    "code": 1851,
    " same": 1852,
    " di": 1853,
    "uss": 1854,
    " create": 1855,
    "ather": 1856,
    "Array": 1857,
    ".in": 1858,
    "fe": 1859,
    "Service": 1860,
    "UN": 1861,
    "ats": 1862,
    " Z": 1863,
    "alth": 1864,
    " made": 1865,
    "true": 1866,
    "AB": 1867,
    " mark": 1868,
    "rid": 1869,
    "ified": 1870,
    ",\r\n": 1871,
    "yn": 1872,
    "press": 1873,
    " group": 1874,
    " fin": 1875,
    " License": 1876,
    "Field": 1877,
    "eger": 1878,
    " world": 1879,
    "iness": 1880,
    "ty": 1881,
    " process": 1882,
    "(b": 1883,
    " cre": 1884,
    "arn": 1885,
    "ives": 1886,
    " main": 1887,
    "ideo": 1888,
    "_g": 1889,
    "AG": 1890,
    "valid": 1891,
    "img": 1892,
    "PI": 1893,
    " color": 1894,
    " report": 1895,
    " take": 1896,
    "rib": 1897,
    "OM": 1898,
    " day": 1899,
    "Request": 1900,
    " sk": 1901,
    "bers": 1902,
    "\ts": 1903,
    ".Add": 1904,
    "oot": 1905,
    "Image": 1906,
    " comple": 1907,
    "ollection": 1908,
    " top": 1909,
    " free": 1910,
    "AS": 1911,
    "De": 1912,
    " On": 1913,
    "IG": 1914,
    "eta": 1915,
    "Date": 1916,
    " action": 1917,
    "Over": 1918,
    "itor": 1919,
    "                                   ": 1920,
    "not": 1921,
    " index": 1922,
    "her": 1923,
    "icon": 1924,
    "On": 1925,
    ";\r\n\r\n": 1926,
    "ivity": 1927,
    "mand": 1928,
    ".Windows": 1929,
    "OL": 1930,
    " real": 1931,
    " max": 1932,
    "land": 1933,
    "....": 1934,
    "raph": 1935,
    " build": 1936,
    "leg": 1937,
    "assword": 1938,
    "?\n\n": 1939,
    "…": 1940,
    "ook": 1941,
    "uck": 1942,
    " message": 1943,
    "test": 1944,
    "ivers": 1945,
    " input": 1946,
    " art": 1947,
    " between": 1948,
    "Get": 1949,
    "enter": 1950,
    "ground": 1951,
    "ene": 1952,
    ".length": 1954,
    "Node": 1955,
    "(i": 1956,
    "Class": 1957,
    "for": 1958,
    " —": 1959,
    "ten": 1960,
    "oin": 1961,
    " ke": 1962,
    "ui": 1963,
    " IN": 1964,
    " table": 1965,
    "sub": 1966,
    " Le": 1967,
    " head": 1968,
    " must": 1969,
    "////////////////": 1970,
    ".util": 1971,
    "Context": 1972,
    " order": 1973,
    " mov": 1974,
    "over": 1975,
    " contin": 1976,
    " say": 1977,
    "static": 1978,
    ".Text": 1979,
    " className": 1980,
    "pany": 1981,
    " ter": 1982,
    "head": 1983,
    "rg": 1984,
    " product": 1985,
    "This": 1986,
    ".”": 1987,
    " But": 1988,
    "loy": 1989,
    " double": 1990,
    "sg": 1991,
    " place": 1992,
    ".x": 1993,
    "message": 1994,
    " information": 1995,
    "private": 1996,
    " oper": 1997,
    "ced": 1998,
    "db": 1999,
    "\"></": 2000,
    "Param": 2001,
    "icle": 2002,
    " week": 2003,
    " prop": 2004,
    "table": 2005,
    "idget": 2006,
    "place": 2007,
    "Prop": 2008,
    " All": 2009,
    "els": 2010,
    "box": 2011,
    ".\n\n\n\n": 2012,
    ".R": 2013,
    " To": 2014,
    "iter": 2015,
    "Sh": 2016,
    "uration": 2017,
    "older": 2018,
    "_list": 2019,
    "come": 2020,
    " sw": 2021,
    "ization": 2022,
    "\tfor": 2023,
    "bl": 2024,
    " program": 2025,
    "(e": 2026,
    "ape": 2027,
    "check": 2028,
    ".Forms": 2029,
    " und": 2030,
    "ategory": 2031,
    "ags": 2032,
    " response": 2033,
    "US": 2034,
    "request": 2035,
    " struct": 2036,
    "escription": 2037,
    " code": 2038,
    "_H": 2039,
    "uffer": 2040,
    " without": 2041,
    "lobal": 2042,
    "Manager": 2043,
    "ilter": 2044,
    "PO": 2045,
    "\tthis": 2046,
    "option": 2047,
    " sol": 2048,
    " ===": 2049,
    "akes": 2050,
    "Controller": 2051,
    "Message": 2052,
    " ref": 2053,
    "ever": 2054,
    " So": 2055,
    "aining": 2056,
    ".append": 2057,
    " still": 2058,
    " provid": 2059,
    " assert": 2060,
    "med": 2061,
    " cap": 2062,
    "usiness": 2063,
    " rep": 2064,
    "tings": 2065,
    "ved": 2066,
    ".N": 2067,
    "api": 2068,
    "OD": 2069,
    " field": 2070,
    "iven": 2071,
    "oto": 2072,
    "“": 2073,
    "col": 2074,
    "(x": 2075,
    "ght": 2076,
    "Result": 2077,
    "Code": 2078,
    ".is": 2079,
    "link": 2080,
    " cour": 2081,
    "An": 2082,
    " team": 2083,
    "\tint": 2084,
    "ift": 2085,
    " second": 2086,
    " going": 2087,
    " range": 2088,
    "_E": 2089,
    "ness": 2090,
    " fam": 2091,
    " nil": 2092,
    " Cont": 2093,
    "ailable": 2094,
    "utes": 2095,
    "atab": 2096,
    " fact": 2097,
    " vis": 2098,
    "(&": 2099,
    " AN": 2100,
    "Al": 2101,
    "title": 2102,
    " android": 2103,
    "CE": 2104,
    "\\\"": 2105,
    "irt": 2106,
    " writ": 2107,
    "н": 2108,
    "\tm": 2109,
    "ftware": 2110,
    "ond": 2111,
    " ret": 2112,
    "osition": 2113,
    " home": 2114,
    " left": 2115,
    "args": 2116,
    "meric": 2117,
    " direct": 2118,
    "oci": 2119,
    "Pl": 2120,
    "As": 2121,
    "ret": 2122,
    "ado": 2123,
    "Of": 2124,
    "chn": 2125,
    " Get": 2126,
    "ee": 2127,
    "ross": 2128,
    "();": 2129,
    "____": 2130,
    ".ph": 2131,
    "It": 2132,
    "oute": 2133,
    " exper": 2134,
    "chool": 2135,
    "www": 2136,
    "},": 2137,
    " allow": 2138,
    " Â": 45333,
    "())": 2140,
    "size": 2141,
    "ism": 2142,
    "ai": 2143,
    "tract": 2144,
    "ane": 2145,
    "...\n\n": 2146,
    "context": 2147,
    " beg": 2148,
    "CH": 2149,
    " page": 2150,
    "hip": 2151,
    "no": 2152,
    "core": 2153,
    "sp": 2154,
    " different": 2155,
    "iable": 2156,
    " Me": 2157,
    "_IN": 2158,
    "button": 2159,
    " Is": 2160,
    "ervices": 2161,
    " ca": 2162,
    " around": 2163,
    "App": 2164,
    "ration": 2165,
    " rece": 2166,
    " really": 2167,
    " image": 2168,
    " target": 2169,
    " dep": 2170,
    "opyright": 2171,
    "tra": 2172,
    "ingle": 2173,
    "ital": 2174,
    "Layout": 2175,
    " both": 2176,
    "Override": 2177,
    "arm": 2178,
    "=>": 2179,
    "aterial": 2180,
    "iled": 2181,
    " put": 2182,
    "Qu": 2183,
    "р": 2184,
    "ung": 2185,
    "map": 2186,
    "\t\t\t\t\t\t\t\t": 2187,
    " level": 2188,
    "Component": 2189,
    "book": 2190,
    "creen": 2191,
    "_RE": 2192,
    " config": 2193,
    "ã": 2194,
    "Or": 2195,
    ".data": 2196,
    " document": 2197,
    "\",\"": 2198,
    "tribute": 2199,
    "ux": 2200,
    "Log": 2201,
    "ference": 2202,
    "post": 2203,
    "_e": 2204,
    " local": 2205,
    "andom": 2206,
    "assert": 2207,
    "Val": 2208,
    "lected": 2209,
    "ina": 2210,
    "atabase": 2211,
    "Add": 2212,
    " content": 2213,
    ".print": 2214,
    "signed": 2215,
    "ric": 2216,
    ".\"\n\n": 2217,
    " fa": 2218,
    "!\n\n": 2219,
    "-f": 2220,
    "ived": 2221,
    " quest": 2222,
    ".ex": 2223,
    " float": 2224,
    " develop": 2225,
    "Ð¾Ð": 2226,
    "Map": 2227,
    "ading": 2228,
    " poss": 2229,
    "UE": 2230,
    "namespace": 2231,
    "_O": 2232,
    "\tb": 2233,
    ".Get": 2234,
    ">(": 2235,
    "json": 2236,
    "etails": 2237,
    " too": 2238,
    " extends": 2239,
    " None": 2240,
    " fore": 2241,
    "(String": 2242,
    "format": 2243,
    " great": 2244,
    "inter": 2245,
    "cale": 2246,
    "с": 2247,
    "ron": 2248,
    "iving": 2249,
    "Ent": 2250,
    "ency": 2251,
    "xt": 2252,
    "oy": 2253,
    " month": 2254,
    " happ": 2255,
    " super": 2256,
    "bar": 2257,
    "default": 2258,
    "_de": 2259,
    "ords": 2260,
    "ln": 2261,
    "({\n": 2262,
    " Ind": 2263,
    "ases": 2264,
    " title": 2265,
    " context": 2266,
    "oh": 2267,
    "-p": 2268,
    "Em": 2269,
    " met": 2270,
    "Test": 2271,
    " life": 2272,
    "_v": 2273,
    " US": 2274,
    "UI": 2275,
    "ocation": 2276,
    "md": 2277,
    " [\n": 2278,
    " ]": 2279,
    "sw": 2280,
    " incre": 2281,
    "script": 2282,
    "ential": 2283,
    "ways": 2284,
    ".de": 2285,
    " src": 2286,
    " catch": 2287,
    " Americ": 2288,
    "//\n": 2289,
    "              ": 2290,
    " pay": 2291,
    "plit": 2292,
    "—": 2293,
    " coun": 2294,
    "obj": 2295,
    ".php": 2296,
    " change": 2297,
    "ething": 2298,
    "'re": 2299,
    "aster": 2300,
    "los": 2301,
    "lation": 2302,
    "  \n": 2303,
    "Le": 2304,
    "({": 2306,
    "ready": 2307,
    " No": 2308,
    " position": 2309,
    " old": 2310,
    " book": 2311,
    "abled": 2312,
    "bug": 2313,
    "Hand": 2314,
    "};\n\n": 2315,
    "isplay": 2316,
    "aving": 2317,
    " gover": 2318,
    " version": 2319,
    "System": 2320,
    "nect": 2321,
    "response": 2322,
    "Style": 2323,
    "Up": 2324,
    "angu": 2325,
    " three": 2326,
    "init": 2327,
    "ero": 2328,
    " law": 2329,
    "endif": 2330,
    " base": 2331,
    "email": 2332,
    "(l": 2333,
    "_V": 2334,
    " conf": 2335,
    "ATE": 2336,
    " during": 2337,
    "tes": 2338,
    " console": 2339,
    " Pr": 2340,
    " spe": 2341,
    "ves": 2342,
    "path": 2343,
    "ialog": 2344,
    "dition": 2345,
    "_to": 2346,
    "ards": 2347,
    " against": 2348,
    "etwork": 2349,
    " Ph": 2350,
    "_L": 2351,
    "cur": 2352,
    "imit": 2353,
    "With": 2354,
    " power": 2355,
    "ium": 2356,
    "';\n\n": 2357,
    " wom": 2358,
    "left": 2359,
    "ources": 2360,
    "atri": 2361,
    " Im": 2362,
    " Man": 2363,
    "orth": 2364,
    "${": 2365,
    "quals": 2366,
    "ese": 2367,
    "_size": 2368,
    " iss": 2369,
    "otal": 2370,
    "-g": 2371,
    "ique": 2372,
    "rame": 2373,
    " width": 2374,
    "erg": 2375,
    ")(": 2376,
    "ittle": 2377,
    "TR": 2378,
    " They": 2379,
    "ences": 2380,
    "rl": 2381,
    "ons": 2382,
    " label": 2383,
    ".y": 2384,
    "-t": 2385,
    "update": 2386,
    "anel": 2387,
    "sc": 2388,
    ".to": 2389,
    " project": 2390,
    " element": 2392,
    " success": 2393,
    "\t\t\n": 2394,
    ".sh": 2395,
    "ram": 2396,
    "ched": 2397,
    "())\n": 2398,
    " (\n": 2399,
    " date": 2400,
    " tot": 2401,
    "_ST": 2402,
    "All": 2403,
    "ification": 2404,
    "\tvar": 2405,
    " tri": 2406,
    "chem": 2407,
    "my": 2408,
    " big": 2409,
    " Ad": 2410,
    " At": 2411,
    "ots": 2412,
    "num": 2413,
    "Act": 2414,
    " map": 2415,
    "era": 2416,
    "cope": 2417,
    ".$": 2418,
    ",”": 2419,
    " pop": 2420,
    " few": 2421,
    " len": 2422,
    "uid": 2423,
    "eters": 2424,
    "ules": 2425,
    "source": 2427,
    "https": 2428,
    " dem": 2429,
    " ear": 2430,
    "################": 2431,
    " match": 2432,
    "ories": 2433,
    "aces": 2434,
    " Cl": 2435,
    " node": 2436,
    "irc": 2437,
    "local": 2438,
    "unity": 2439,
    "};\n": 2440,
    " another": 2441,
    "<<": 2442,
    "ogle": 2443,
    " sit": 2444,
    "ework": 2445,
    "TE": 2446,
    ".I": 2447,
    "NS": 2448,
    "ology": 2449,
    "ought": 2450,
    ".Cont": 2451,
    ">>": 2452,
    " care": 2453,
    "state": 2454,
    "\tprivate": 2455,
    " effect": 2456,
    "++)": 2457,
    "_file": 2458,
    "ending": 2459,
    "Line": 2460,
    "For": 2461,
    "ior": 2462,
    " Sc": 2463,
    " fun": 2464,
    ".Size": 2465,
    "\telse": 2466,
    "])": 2467,
    "start": 2468,
    "vious": 2469,
    " },": 2470,
    "ours": 2471,
    " leg": 2472,
    " service": 2473,
    " since": 2474,
    "iron": 2475,
    "Label": 2476,
    " non": 2477,
    " los": 2478,
    "iction": 2479,
    " full": 2480,
    "acter": 2481,
    "board": 2482,
    "gress": 2483,
    " turn": 2484,
    "ither": 2485,
    ".size": 2486,
    " body": 2487,
    "resh": 2488,
    "eturn": 2489,
    "(_": 2490,
    "yles": 2491,
    "ormal": 2492,
    "pi": 2493,
    " something": 2494,
    "!--": 2495,
    "uint": 2496,
    " produ": 2497,
    " stand": 2498,
    " proble": 2499,
    " available": 2500,
    "mt": 2501,
    " Bl": 2502,
    " ...": 2503,
    " block": 2504,
    "Input": 2505,
    " keep": 2506,
    "Count": 2507,
    "open": 2508,
    " ['": 2509,
    " throw": 2510,
    "uilder": 2511,
    "Action": 2512,
    " things": 2513,
    "True": 2514,
    " url": 2515,
    " Bo": 2516,
    "printf": 2517,
    " red": 2518,
    "js": 2519,
    ".create": 2520,
    " Or": 2521,
    "Status": 2522,
    "Instance": 2523,
    " control": 2524,
    " come": 2525,
    " custom": 2526,
    "location": 2527,
    "model": 2528,
    " \r\n": 2529,
    " source": 2530,
    " eas": 2531,
    ".out": 2532,
    "]\n\n": 2533,
    "oney": 2534,
    " await": 2535,
    " partic": 2536,
    "AP": 2537,
    "ublish": 2538,
    "odes": 2539,
    "_pro": 2540,
    "ply": 2541,
    "riter": 2542,
    " prov": 2543,
    " mill": 2544,
    "HT": 2545,
    "])\n": 2546,
    " chang": 2547,
    " ask": 2548,
    "                     ": 2549,
    " output": 2550,
    " email": 2551,
    ".push": 2552,
    " }\r\n\r\n": 2553,
    "ination": 2554,
    "atrix": 2555,
    "Table": 2556,
    "uccess": 2557,
    "]);\n": 2558,
    "                                       ": 2559,
    " disc": 2560,
    "([": 2561,
    " business": 2562,
    "height": 2563,
    ".html": 2564,
    "ta": 2565,
    "field": 2566,
    " required": 2567,
    "_R": 2568,
    " govern": 2569,
    "}\r\n\r\n": 2570,
    "lex": 2571,
    ".,": 2572,
    " Set": 2573,
    "urch": 2574,
    "///": 2575,
    "ts": 2576,
    "af": 2577,
    " might": 2578,
    "istory": 2579,
    "Str": 2580,
    " never": 2581,
    "Response": 2582,
    "arse": 2583,
    "ada": 2584,
    " How": 2585,
    " *)": 2586,
    " ;": 2587,
    " hard": 2588,
    "Ad": 2589,
    " intern": 2590,
    "used": 2591,
    "(data": 2592,
    "mod": 2593,
    "annel": 2594,
    " np": 2595,
    "ugg": 2596,
    " />\n": 2597,
    " called": 2598,
    "body": 2599,
    " cho": 2600,
    "(r": 2601,
    "_set": 2602,
    "ird": 2603,
    " >=": 2604,
    " };\n": 2605,
    " options": 2606,
    " Gener": 2607,
    " height": 2608,
    "Point": 2609,
    "You": 2610,
    "ety": 2611,
    "Click": 2612,
    " small": 2613,
    " ide": 2614,
    " access": 2615,
    "anguage": 2616,
    " protected": 2617,
    " job": 2618,
    " There": 2619,
    "Def": 2620,
    " address": 2621,
    " uint": 2622,
    "Not": 2623,
    "oo": 2624,
    "aps": 2625,
    "<div": 2626,
    "ained": 2627,
    "atur": 2628,
    " sum": 2629,
    "-w": 2630,
    " Date": 2631,
    " little": 2632,
    " fri": 2633,
    "YPE": 2634,
    " port": 2635,
    "eh": 2636,
    "pring": 2637,
    "_path": 2638,
    " status": 2639,
    "aim": 2640,
    "bool": 2641,
    " appe": 2642,
    " os": 2643,
    ".name": 2644,
    "ension": 2645,
    "_G": 2646,
    " update": 2647,
    "Config": 2648,
    "aff": 2649,
    "ERR": 2650,
    " <=": 2651,
    "ately": 2652,
    "#if": 2653,
    "uction": 2654,
    " Te": 2655,
    " link": 2656,
    " User": 2657,
    ".find": 2658,
    ".org": 2659,
    "me": 2660,
    " given": 2661,
    "Out": 2662,
    "#endif": 2663,
    " better": 2664,
    "Page": 2665,
    " feel": 2666,
    "enn": 2667,
    "ML": 2668,
    " already": 2669,
    " including": 2670,
    "oogle": 2671,
    "ru": 2672,
    "ically": 2673,
    "prop": 2674,
    "lean": 2675,
    "outer": 2676,
    " always": 2677,
    "ording": 2678,
    "If": 2679,
    "orage": 2680,
    " parent": 2681,
    "vis": 2682,
    "\t\t\t\t\t\t\t": 2683,
    " got": 2684,
    "stand": 2685,
    " less": 2686,
    "/s": 2687,
    " Ass": 2688,
    "apt": 2689,
    "ired": 2690,
    " Add": 2691,
    " account": 2692,
    "ploy": 2693,
    " der": 2694,
    "resent": 2695,
    " lot": 2696,
    " valid": 2697,
    "\td": 2698,
    " bit": 2699,
    "ponents": 2700,
    " following": 2701,
    "_ex": 2702,
    "SON": 2703,
    " sure": 2704,
    "ocial": 2705,
    " prom": 2706,
    "erties": 2707,
    "header": 2708,
    ".pro": 2709,
    " boolean": 2710,
    " search": 2711,
    "ken": 2712,
    " orig": 2713,
    " er": 2714,
    "Ed": 2715,
    "EM": 2716,
    "aut": 2717,
    "ling": 2718,
    "ality": 2719,
    "ById": 2720,
    "bed": 2721,
    "\tcase": 2722,
    "ether": 2723,
    "posit": 2724,
    " invest": 2725,
    " OR": 2726,
    " says": 2727,
    "mission": 2728,
    "AME": 2729,
    " temp": 2730,
    "oad": 2731,
    " rest": 2732,
    "info": 2733,
    " interest": 2734,
    "Arg": 2735,
    " perform": 2736,
    "pons": 2737,
    " View": 2738,
    " ver": 2739,
    "lib": 2740,
    "(const": 2741,
    "Util": 2742,
    "Listener": 2743,
    "arge": 2744,
    " mult": 2745,
    " die": 2746,
    " site": 2747,
    "../../": 2748,
    "EL": 2749,
    " values": 2750,
    " })\n": 2751,
    "pen": 2752,
    "No": 2753,
    "icro": 2754,
    " beh": 2755,
    " './": 2756,
    "acy": 2757,
    "rec": 2758,
    "()->": 2759,
    "\t   ": 2760,
    "\"))": 2761,
    "Content": 2762,
    "_W": 2763,
    "plement": 2764,
    " won": 2765,
    " video": 2766,
    "adi": 2767,
    "point": 2768,
    "%%": 2769,
    " gl": 2770,
    "erved": 2771,
    "viron": 2772,
    "IF": 2773,
    "uted": 2774,
    "ã": 2775,
    "'m": 2776,
    " cert": 2777,
    " prof": 2778,
    " cell": 2779,
    "ari": 2780,
    " player": 2781,
    "ais": 2782,
    " cost": 2783,
    " hum": 2784,
    "(R": 2785,
    " offic": 2786,
    "ks": 2787,
    ".text": 2788,
    "atures": 2789,
    " total": 2790,
    " */\n\n": 2791,
    "ope": 2792,
    " stat": 2793,
    "UM": 2794,
    " load": 2795,
    "ights": 2796,
    " clear": 2797,
    "uro": 2798,
    " techn": 2799,
    "upport": 2800,
    "IR": 2801,
    " row": 2802,
    " seem": 2803,
    " q": 2804,
    " short": 2805,
    " Not": 2806,
    "ipp": 2807,
    "Group": 2808,
    "section": 2809,
    "max": 2810,
    "irl": 2811,
    " override": 2812,
    " company": 2813,
    " done": 2814,
    "\");\r\n": 2815,
    " gre": 2816,
    ".Re": 2817,
    " belie": 2818,
    "rist": 2819,
    " health": 2820,
    "ANT": 2821,
    "()\n\n": 2822,
    " Be": 2823,
    ".value": 2824,
    " Gr": 2825,
    "ottom": 2826,
    " args": 2827,
    "PT": 2828,
    "status": 2829,
    "func": 2830,
    "uments": 2831,
    "-h": 2832,
    "Number": 2833,
    ":\r\n": 2834,
    " Log": 2835,
    "erver": 2836,
    " ),\n": 2837,
    "ament": 2838,
    " obj": 2839,
    "inc": 2840,
    " children": 2841,
    "icy": 2842,
    "IZ": 2843,
    "ands": 2844,
    "ably": 2845,
    " distrib": 2846,
    " cur": 2847,
    "erial": 2848,
    " days": 2849,
    "reated": 2850,
    "rect": 2851,
    "-l": 2852,
    "irm": 2853,
    "idden": 2854,
    "omb": 2855,
    " initial": 2856,
    ".js": 2857,
    " â": 27905,
    "Query": 2859,
    " online": 2860,
    "imal": 2861,
    ".con": 2862,
    "au": 2863,
    "Url": 2864,
    "control": 2865,
    "irection": 2866,
    " instance": 2867,
    "ORT": 2868,
    " Fr": 2869,
    "where": 2870,
    " javax": 2871,
    " organ": 2872,
    "apter": 2873,
    " reason": 2874,
    "options": 2875,
    " Mar": 2876,
    "(a": 2877,
    " within": 2878,
    ".”\n\n": 2879,
    "ODE": 2880,
    "_DE": 2881,
    "admin": 2882,
    "ended": 2883,
    " design": 2884,
    " Data": 2885,
    "une": 2886,
    " File": 2887,
    "root": 2888,
    " cent": 2889,
    " arr": 2890,
    "_add": 2891,
    "len": 2892,
    "page": 2893,
    ",'": 2894,
    "_str": 2895,
    " bro": 2896,
    "ability": 2897,
    "outh": 2898,
    "/c": 2899,
    "pose": 2900,
    "irtual": 2901,
    "earch": 2902,
    "_url": 2903,
    "argin": 2904,
    "Http": 2905,
    " school": 2906,
    "ava": 2907,
    " consider": 2908,
    ".label": 2909,
    " Array": 2910,
    "web": 2911,
    "opt": 2912,
    ".println": 2913,
    "ulation": 2914,
    " func": 2915,
    "PL": 2916,
    " \"\\": 2917,
    " Text": 2918,
    "actory": 2919,
    "(function": 2920,
    "null": 2921,
    " eng": 2922,
    "down": 2923,
    " include": 2924,
    " En": 2925,
    " Dr": 2926,
    " db": 2927,
    "!!": 2928,
    "side": 2929,
    " init": 2930,
    "quired": 2931,
    " She": 2932,
    "Column": 2933,
    "react": 2934,
    " ann": 2935,
    " stop": 2936,
    " later": 2937,
    " That": 2938,
    "ention": 2939,
    "df": 2940,
    "UG": 2941,
    "ILE": 2942,
    " client": 2943,
    "raft": 2944,
    "ffer": 2945,
    "POST": 2946,
    "elper": 2947,
    " love": 2948,
    "quote": 2949,
    "oud": 2950,
    " json": 2951,
    " able": 2952,
    " men": 2953,
    "AX": 2954,
    " Copyright": 2955,
    "avig": 2957,
    "req": 2958,
    "Client": 2959,
    "});\n": 2960,
    ".Com": 2961,
    "erc": 2962,
    "ilt": 2963,
    "pecial": 2964,
    "_com": 2965,
    "room": 2966,
    ".Name": 2967,
    " give": 2968,
    "amb": 2969,
    "ike": 2970,
    " condition": 2971,
    "client": 2972,
    "ators": 2973,
    ":\"": 2974,
    " copy": 2975,
    "uture": 2976,
    "iversity": 2977,
    "ernal": 2978,
    "{{": 2979,
    " Can": 2980,
    "ounc": 2981,
    "do": 2982,
    " occ": 2983,
    " appro": 2984,
    "thers": 2985,
    "ze": 2986,
    " either": 2987,
    " Fl": 2988,
    " important": 2989,
    " lead": 2990,
    "attr": 2991,
    "ART": 2992,
    "Equal": 2993,
    " da": 2994,
    "etch": 2995,
    "entity": 2996,
    " family": 2997,
    "adding": 2998,
    " option": 2999,
    " exist": 3000,
    "ica": 3001,
    " Object": 3002,
    "'ve": 3003,
    "vers": 3004,
    "itional": 3005,
    "output": 3006,
    " True": 3007,
    " OF": 3008,
    "_time": 3009,
    " offer": 3010,
    " });\n\n": 3011,
    "HER": 3012,
    "egin": 3013,
    "\"\"": 3014,
    " water": 3015,
    " che": 3016,
    " My": 3017,
    "ored": 3018,
    " step": 3019,
    "ances": 3020,
    "CK": 3021,
    "AY": 3022,
    "à¸": 3023,
    "struction": 3024,
    "(C": 3025,
    "ouch": 3026,
    "Stream": 3027,
    "active": 3028,
    "ama": 3029,
    "Entity": 3030,
    "product": 3031,
    "(){\n": 3032,
    " government": 3033,
    " ID": 3034,
    "ajor": 3035,
    "And": 3036,
    " display": 3037,
    "л": 3038,
    " times": 3039,
    " four": 3040,
    " far": 3041,
    " present": 3042,
    " NS": 3043,
    " \\\n": 3044,
    "uest": 3045,
    " bas": 3046,
    "echo": 3047,
    "child": 3048,
    "ifier": 3049,
    "Handler": 3050,
    " lib": 3051,
    "Property": 3052,
    "translation": 3053,
    " room": 3054,
    " once": 3055,
    " []": 3056,
    "center": 3057,
    "================================": 3058,
    " results": 3059,
    " continue": 3060,
    " talk": 3061,
    "_get": 3062,
    " grow": 3063,
    ".sw": 3064,
    "eb": 3065,
    " Public": 3066,
    "OP": 3067,
    "ecute": 3068,
    "ols": 3069,
    " **": 3070,
    "\");\n\n": 3071,
    " mass": 3072,
    "ured": 3073,
    ".class": 3074,
    "omic": 3075,
    " mean": 3076,
    "ips": 3077,
    " aut": 3078,
    ");\r\n\r\n": 3079,
    " until": 3080,
    " market": 3081,
    " area": 3082,
    "uit": 3083,
    " length": 3084,
    " With": 3085,
    "structor": 3086,
    "event": 3087,
    "\"><": 3088,
    " Sp": 3089,
    "IV": 3090,
    " mus": 3091,
    "iff": 3092,
    " kind": 3093,
    "author": 3094,
    "ounds": 3095,
    "mb": 3096,
    "_key": 3097,
    "width": 3098,
    "pository": 3099,
    " light": 3100,
    "uk": 3101,
    "Row": 3102,
    "ohn": 3103,
    "alf": 3104,
    "vironment": 3105,
    "apper": 3106,
    "ollections": 3107,
    " side": 3108,
    "_info": 3109,
    " example": 3110,
    "imary": 3111,
    " wr": 3112,
    " camp": 3113,
    "cribe": 3114,
    "\"/": 3115,
    " miss": 3116,
    "way": 3117,
    " based": 3118,
    " plan": 3119,
    "Vis": 3120,
    "omain": 3121,
    "unk": 3122,
    " away": 3123,
    "UP": 3124,
    "<T": 3125,
    "OS": 3126,
    "iod": 3127,
    " Mon": 3128,
    "’re": 3129,
    " lik": 3130,
    "ively": 3132,
    ".v": 3133,
    "imer": 3134,
    "izer": 3135,
    "Sub": 3136,
    " button": 3137,
    " Up": 3138,
    " experience": 3139,
    "CL": 3140,
    " render": 3141,
    "_value": 3142,
    " near": 3143,
    "URL": 3144,
    "alt": 3145,
    " country": 3146,
    "ibility": 3147,
    "(),\n": 3148,
    "ead": 3149,
    " author": 3150,
    " specific": 3151,
    "base": 3152,
    "(name": 3153,
    "ones": 3154,
    " Do": 3155,
    " along": 3156,
    "year": 3157,
    " express": 3158,
    ".'": 3159,
    "env": 3160,
    " begin": 3161,
    " software": 3162,
    " imp": 3163,
    " win": 3164,
    "ón": 3165,
    " thing": 3166,
    "Trans": 3167,
    " THE": 3168,
    " <?": 3169,
    " why": 3170,
    " doesn": 3171,
    "ij": 3172,
    "ging": 3173,
    "\tg": 3174,
    " single": 3175,
    "offset": 3176,
    "arning": 3177,
    "ograph": 3178,
    "ley": 3179,
    "_count": 3180,
    " anal": 3181,
    "create": 3182,
    "/m": 3183,
    " Reg": 3184,
    "unch": 3185,
    "=$": 3186,
    "isk": 3187,
    " rights": 3188,
    "(M": 3189,
    " \"\"\"\n": 3190,
    "aper": 3191,
    ".model": 3192,
    " po": 3193,
    "empty": 3194,
    "artment": 3195,
    " ant": 3196,
    " When": 3197,
    " women": 3198,
    " Ed": 3199,
    " season": 3200,
    " dest": 3201,
    "(h": 3203,
    " possible": 3204,
    " sever": 3205,
    " btn": 3206,
    " didn": 3207,
    " sent": 3208,
    " enc": 3209,
    " command": 3210,
    " ],\n": 3211,
    "_x": 3212,
    " recent": 3213,
    "olution": 3214,
    "vector": 3215,
    " By": 3216,
    " May": 3217,
    " Act": 3218,
    "»¿": 3219,
    " money": 3220,
    "INT": 3221,
    "bsite": 3222,
    "\tp": 3223,
    ".\r\n": 3224,
    "﻿": 3225,
    "sl": 3226,
    "attern": 3227,
    " Class": 3228,
    " told": 3229,
    "udio": 3230,
    "current": 3231,
    " equ": 3232,
    " auto": 3233,
    " State": 3234,
    "da": 3235,
    "msg": 3236,
    "));\n\n": 3237,
    " working": 3238,
    " query": 3239,
    " Br": 3240,
    " window": 3241,
    "auth": 3242,
    "only": 3243,
    "\tt": 3244,
    " least": 3245,
    "agn": 3246,
    " expl": 3247,
    "itter": 3248,
    "aring": 3249,
    " column": 3250,
    " General": 3251,
    "\":\"": 3252,
    "eral": 3253,
    "rior": 3254,
    " record": 3255,
    "IB": 3256,
    "EX": 3257,
    " dat": 3258,
    " making": 3259,
    "ued": 3260,
    " Car": 3261,
    "emp": 3262,
    "\".": 3263,
    " Med": 3264,
    " close": 3265,
    " percent": 3266,
    " past": 3267,
    "(g": 3268,
    ":(": 3269,
    " write": 3270,
    " move": 3271,
    " pat": 3272,
    "Control": 3273,
    ".To": 3274,
    " vi": 3275,
    "*/\n": 3276,
    "inate": 3277,
    "'ll": 3278,
    "aged": 3279,
    "Null": 3280,
    " special": 3281,
    "IZE": 3282,
    " city": 3283,
    "/*\n": 3284,
    " Eng": 3285,
    "ixed": 3286,
    "inary": 3287,
    "py": 3288,
    " eff": 3289,
    "ario": 3290,
    " tell": 3291,
    "avor": 3292,
    " select": 3293,
    "level": 3294,
    "imum": 3295,
    "oper": 3296,
    "Builder": 3297,
    "IP": 3298,
    "'),\n": 3299,
    "esc": 3300,
    " font": 3301,
    "\";\n\n": 3302,
    " Am": 3303,
    "ished": 3304,
    "ills": 3305,
    "Inter": 3306,
    "OW": 3307,
    " course": 3308,
    " late": 3309,
    "iddle": 3310,
    " amount": 3311,
    " async": 3312,
    "ino": 3313,
    "cul": 3314,
    " ì": 3315,
    "andle": 3316,
    "_user": 3317,
    " ben": 3318,
    " Cal": 3319,
    " $_": 3320,
    " Rep": 3321,
    " enough": 3322,
    "Token": 3323,
    ".user": 3324,
    "(j": 3325,
    "Sc": 3326,
    "Width": 3327,
    "now": 3328,
    "atform": 3329,
    " looking": 3330,
    " hold": 3331,
    "Module": 3332,
    "ITY": 3333,
    "vo": 3334,
    "ison": 3335,
    ".Data": 3336,
    "yc": 3337,
    " pot": 3338,
    " Trump": 3339,
    "idual": 3340,
    "ides": 3341,
    "rt": 3342,
    " property": 3343,
    "                                           ": 3344,
    "amework": 3345,
    "go": 3346,
    " low": 3347,
    " para": 3348,
    " price": 3349,
    "ury": 3350,
    " today": 3351,
    "roy": 3352,
    " '/": 3353,
    " polit": 3354,
    " ''": 3355,
    "ymb": 3356,
    "Ph": 3357,
    " adv": 3358,
    " attack": 3359,
    " Ste": 3360,
    "ROM": 3361,
    "ana": 3362,
    " means": 3363,
    " story": 3364,
    "ids": 3365,
    "aken": 3366,
    " meet": 3367,
    " mom": 3368,
    " ‘": 3369,
    " ?>": 3370,
    " den": 3371,
    "obile": 3372,
    "change": 3373,
    "            \n": 3374,
    "ici": 3375,
    "na": 3376,
    " Form": 3377,
    " sort": 3378,
    "Select": 3379,
    "pare": 3380,
    " thought": 3381,
    "_con": 3382,
    " task": 3383,
    "ocus": 3384,
    " DE": 3385,
    " Min": 3386,
    " opt": 3387,
    "\tbreak": 3388,
    "umer": 3389,
    "KE": 3390,
    "then": 3391,
    " det": 3392,
    " Test": 3393,
    "ports": 3394,
    " review": 3395,
    "('/": 3396,
    "move": 3397,
    " switch": 3398,
    "ERT": 3399,
    "patch": 3400,
    "annot": 3401,
    "ã": 3402,
    " above": 3403,
    "itive": 3404,
    " question": 3405,
    " Qu": 3406,
    "。\n\n": 3407,
    "gle": 3408,
    " word": 3409,
    " provide": 3410,
    " Return": 3411,
    " research": 3412,
    "ão": 3413,
    "ustr": 3414,
    " publish": 3415,
    "chema": 3416,
    "}}": 3417,
    " CON": 3418,
    "-in": 3419,
    "allback": 3420,
    " cover": 3421,
    "\\\\": 3422,
    "color": 3423,
    " IS": 3424,
    " whether": 3425,
    "imate": 3426,
    "isc": 3427,
    "Bar": 3428,
    " div": 3429,
    "Be": 3430,
    "ourn": 3431,
    " having": 3432,
    "lem": 3433,
    "player": 3434,
    "abs": 3435,
    "amera": 3436,
    "ney": 3437,
    " exc": 3438,
    "gether": 3439,
    "plied": 3440,
    "ao": 3441,
    "[$": 3442,
    " ++": 3443,
    "ipe": 3444,
    "show": 3445,
    "/d": 3446,
    "[:": 3447,
    "agement": 3448,
    "lev": 3449,
    "_ID": 3450,
    "rary": 3451,
    "ades": 3452,
    "_se": 3453,
    "ause": 3454,
    " employ": 3455,
    " */\r\n": 3456,
    " fre": 3457,
    " '@": 3458,
    " complet": 3459,
    " large": 3460,
    "ral": 3461,
    "\\x": 3462,
    " fac": 3463,
    "<String": 3464,
    " created": 3465,
    "uper": 3466,
    ".state": 3467,
    " host": 3468,
    "eneric": 3469,
    "/b": 3470,
    "(!": 3471,
    "while": 3472,
    "ias": 3473,
    "BUG": 3474,
    " );\n\n": 3475,
    " role": 3476,
    "Reg": 3477,
    " Color": 3478,
    "Start": 3479,
    " porn": 3480,
    "top": 3481,
    " web": 3482,
    " dev": 3483,
    " deal": 3484,
    "++)\n": 3485,
    "Integer": 3486,
    "position": 3487,
    ".on": 3488,
    " (\"": 3489,
    "ä¸": 3490,
    " problem": 3491,
    "sv": 3492,
    " press": 3493,
    "ABLE": 3494,
    "ATION": 3495,
    " See": 3496,
    "anch": 3497,
    " though": 3498,
    "leep": 3499,
    " <!--": 3500,
    " points": 3501,
    "                         ": 3502,
    ".J": 3503,
    " ::": 3504,
    "ptr": 3505,
    "DB": 3506,
    "++;\n": 3507,
    ".png": 3508,
    "node": 3509,
    "soft": 3510,
    "pond": 3511,
    " ever": 3512,
    "----------------------------------------------------------------": 3513,
    "Menu": 3514,
    "('#": 3515,
    " services": 3516,
    "pg": 3517,
    "})\n": 3518,
    "params": 3519,
    " actually": 3520,
    " \"/": 3521,
    "Empty": 3522,
    "Method": 3523,
    " ident": 3524,
    "unic": 3525,
    " million": 3526,
    " aff": 3527,
    "style": 3528,
    " conc": 3529,
    "ios": 3530,
    "ignment": 3531,
    "ULT": 3532,
    "Pr": 3533,
    "\";\r\n": 3534,
    " understand": 3535,
    "uary": 3536,
    " happen": 3537,
    " server": 3538,
    " Co": 3539,
    "SC": 3540,
    " les": 3541,
    " files": 3542,
    "Grid": 3543,
    "sql": 3544,
    " often": 3545,
    " info": 3546,
    "_tr": 3547,
    "src": 3548,
    "ony": 3549,
    " space": 3550,
    "umb": 3551,
    " password": 3552,
    " store": 3553,
    ",\n\n": 3554,
    " What": 3555,
    "ged": 3556,
    " False": 3557,
    "Us": 3558,
    "swer": 3559,
    "_index": 3560,
    " format": 3561,
    "most": 3562,
    "sm": 3563,
    "New": 3564,
    " details": 3565,
    " prob": 3566,
    " AND": 3567,
    "()\r\n": 3568,
    "ilar": 3569,
    " ${": 3570,
    "rypt": 3571,
    ".Collections": 3572,
    "$this": 3573,
    " Free": 3574,
    "_of": 3575,
    "(false": 3576,
    "dated": 3577,
    " >>": 3578,
    " face": 3579,
    "CTION": 3580,
    " save": 3581,
    " typ": 3582,
    "dev": 3583,
    "(\"#": 3584,
    "AGE": 3585,
    "container": 3586,
    "edit": 3587,
    "QL": 3588,
    " items": 3589,
    " social": 3590,
    "ien": 3591,
    " React": 3592,
    ").\n\n": 3593,
    " mar": 3594,
    " redu": 3595,
    " RE": 3596,
    ".put": 3597,
    " major": 3598,
    "Cell": 3599,
    "next": 3600,
    " expected": 3601,
    " yet": 3602,
    " indiv": 3603,
    "tributes": 3604,
    "atis": 3605,
    "amed": 3606,
    " food": 3607,
    "Source": 3608,
    "(string": 3609,
    " +\n": 3610,
    "ites": 3611,
    "dr": 3612,
    " members": 3613,
    " comb": 3614,
    "items": 3615,
    " Per": 3616,
    "TH": 3617,
    "=True": 3618,
    " bar": 3619,
    "_SE": 3620,
    "comm": 3621,
    "(w": 3622,
    ")\n\n\n": 3623,
    " send": 3624,
    " inc": 3625,
    "unsigned": 3626,
    "FA": 3627,
    " params": 3628,
    "apping": 3629,
    "ros": 3630,
    "ugin": 3631,
    "fa": 3632,
    " connection": 3633,
    " };\n\n": 3634,
    " become": 3635,
    "Mode": 3636,
    " ev": 3637,
    " diff": 3638,
    " United": 3639,
    "Height": 3640,
    "fully": 3641,
    "images": 3642,
    " makes": 3643,
    " global": 3644,
    " contact": 3645,
    "':\n": 3646,
    " abs": 3647,
    "Ð°Ð": 3648,
    "float": 3649,
    " except": 3650,
    " Pol": 3651,
    "Child": 3652,
    "typ": 3653,
    " certain": 3654,
    "ión": 3655,
    "OUT": 3656,
    " impro": 3657,
    "iles": 3658,
    " -->\n": 3659,
    " Part": 3660,
    "values": 3661,
    "oss": 3662,
    "/**": 3663,
    "ilit": 3664,
    " Event": 3665,
    "curity": 3666,
    "ster": 3667,
    " character": 3668,
    " news": 3669,
    " \",": 3670,
    " device": 3671,
    "cel": 3672,
    "login": 3673,
    "heet": 3674,
    "Default": 3675,
    "@\"": 3676,
    "\t ": 3677,
    "click": 3678,
    "(value": 3679,
    " Ab": 3680,
    " previous": 3681,
    "ERROR": 3682,
    "ocal": 3683,
    " material": 3684,
    " below": 3685,
    " Christ": 3686,
    " media": 3687,
    "cover": 3688,
    " UI": 3689,
    " fail": 3690,
    " black": 3691,
    " component": 3692,
    " American": 3693,
    " added": 3694,
    " buy": 3695,
    "stit": 3696,
    " came": 3697,
    " delete": 3698,
    "property": 3699,
    "oding": 3700,
    " card": 3701,
    "rops": 3702,
    " https": 3703,
    " root": 3704,
    " handle": 3705,
    "CC": 3706,
    "Back": 3707,
    "emplate": 3708,
    " getting": 3709,
    "_by": 3710,
    "mail": 3711,
    "_sh": 3712,
    ".assert": 3713,
    " Dec": 3714,
    "(true": 3715,
    " comput": 3716,
    " claim": 3717,
    "'=>": 3718,
    " Sub": 3719,
    " air": 3720,
    "ops": 3721,
    "nav": 3722,
    "ements": 3723,
    "(id": 3724,
    " enter": 3725,
    "anged": 3726,
    "End": 3727,
    " location": 3728,
    " night": 3729,
    " doing": 3730,
    " Red": 3731,
    "lin": 3732,
    "}\n\n\n": 3733,
    "vider": 3734,
    " pick": 3735,
    " watch": 3736,
    "essages": 3737,
    " human": 3738,
    " dam": 3739,
    "pend": 3740,
    "dir": 3741,
    " tax": 3742,
    " girl": 3743,
    "reet": 3744,
    " box": 3745,
    " strong": 3746,
    "(v": 3747,
    "rel": 3748,
    " interface": 3749,
    " msg": 3750,
    "fect": 3751,
    "_at": 3752,
    " house": 3753,
    " track": 3754,
    "');\n\n": 3755,
    "je": 3756,
    " John": 3757,
    "istr": 3758,
    "(S": 3759,
    "ube": 3760,
    " ce": 3761,
    "itted": 3762,
    "VER": 3763,
    "*)": 3764,
    "parent": 3765,
    " application": 3766,
    "any": 3767,
    ".swing": 3768,
    " pack": 3769,
    "\\u": 3770,
    " pract": 3771,
    " section": 3772,
    "ctx": 3773,
    " unsigned": 3774,
    ".Point": 3775,
    " One": 3776,
    "ı": 3777,
    "iple": 3778,
    "aid": 3779,
    "у": 3780,
    "Vector": 3781,
    "byte": 3782,
    " wait": 3783,
    " à": 27982,
    " together": 3786,
    " throws": 3787,
    "FO": 3788,
    "'))": 3789,
    "host": 3790,
    "ising": 3791,
    ".view": 3792,
    " terms": 3793,
    "framework": 3794,
    "-r": 3795,
    " apply": 3796,
    " session": 3797,
    "Options": 3798,
    "uggest": 3799,
    " others": 3800,
    "witter": 3801,
    " fund": 3802,
    "Init": 3803,
    "__(": 3804,
    "ensor": 3805,
    "GET": 3806,
    " several": 3807,
    "ii": 3808,
    "[j": 3809,
    "IO": 3810,
    " template": 3811,
    "Position": 3812,
    " econ": 3813,
    "achine": 3814,
    " il": 3815,
    ".spring": 3816,
    "main": 3817,
    "elt": 3818,
    "iment": 3819,
    "Rec": 3820,
    "mm": 3821,
    " University": 3822,
    "ursor": 3823,
    "                    ": 3824,
    "GL": 3825,
    "icture": 3826,
    "ithub": 3827,
    "cer": 3828,
    "cast": 3829,
    "From": 3830,
    "ales": 3831,
    " subject": 3832,
    "password": 3833,
    "ny": 3834,
    " esc": 3835,
    ".write": 3836,
    "，": 3837,
    "What": 3838,
    ".H": 3839,
    " history": 3840,
    " Fe": 3841,
    " individual": 3842,
    "unit": 3843,
    " -->": 3844,
    " du": 3845,
    "IST": 3846,
    " users": 3847,
    "fs": 3848,
    "false": 3849,
    "unt": 3850,
    "Title": 3851,
    " mot": 3852,
    " future": 3853,
    "ached": 3854,
    " started": 3855,
    " mode": 3856,
    " '<": 3857,
    "_array": 3858,
    " ax": 3859,
    "'];\n": 3860,
    "ires": 3861,
    "There": 3862,
    "ught": 3863,
    "tml": 3864,
    "posed": 3865,
    "icult": 3866,
    " took": 3867,
    " games": 3868,
    " }}": 3869,
    " ?>\n": 3870,
    " products": 3871,
    "Is": 3872,
    " bad": 3873,
    " Des": 3874,
    ".path": 3875,
    "'\n\n": 3876,
    " Post": 3877,
    "avel": 3878,
    "(:": 3879,
    " needs": 3880,
    " known": 3881,
    "Fl": 3882,
    " exec": 3883,
    " seen": 3884,
    "ume": 3885,
    " border": 3886,
    " live": 3887,
    "temp": 3888,
    "Per": 3889,
    " variable": 3890,
    "iet": 3891,
    " Def": 3892,
    " ge": 3893,
    "eme": 3894,
    "_back": 3895,
    "first": 3896,
    " provided": 3897,
    "////////////////////////////////": 3898,
    " filename": 3899,
    " hope": 3900,
    "uly": 3901,
    "auto": 3902,
    "find": 3903,
    "_string": 3904,
    "btn": 3905,
    "itude": 3906,
    "Attribute": 3907,
    " young": 3908,
    ".txt": 3909,
    " website": 3910,
    " Prop": 3911,
    " ey": 3912,
    ">();\n": 3913,
    "ional": 3914,
    "ARR": 3915,
    "ictionary": 3916,
    "urther": 3917,
    ".</": 3918,
    "ALL": 3919,
    " study": 3920,
    "ili": 3921,
    " network": 3922,
    "yl": 3923,
    "istance": 3924,
    "OK": 3925,
    "NU": 3926,
    "rest": 3927,
    " ST": 3928,
    "icrosoft": 3929,
    " limit": 3930,
    " cut": 3931,
    "():\n": 3932,
    " cou": 3933,
    "ogn": 3934,
    " sizeof": 3935,
    "ival": 3936,
    " went": 3937,
    ".z": 3938,
    "Link": 3939,
    " fire": 3940,
    " across": 3941,
    " community": 3942,
    "region": 3943,
    "NE": 3944,
    "Ref": 3945,
    " official": 3946,
    " visit": 3947,
    "olve": 3948,
    " received": 3949,
    " token": 3950,
    " months": 3951,
    " anim": 3952,
    " particular": 3953,
    "styles": 3954,
    "ico": 3955,
    " ess": 3956,
    ".Control": 3957,
    " é": 18137,
    "ball": 3959,
    " learn": 3960,
    "inding": 3961,
    "Var": 3962,
    " decl": 3963,
    "(err": 3964,
    "LECT": 3965,
    "One": 3966,
    "pha": 3967,
    " ~": 3968,
    "fort": 3969,
    "asure": 3970,
    " mind": 3971,
    " End": 3972,
    "Check": 3973,
    " quick": 3974,
    "\"),": 3975,
    "AND": 3976,
    "utions": 3977,
    "Base": 3978,
    "________": 3979,
    " comment": 3980,
    "INE": 3981,
    "’ve": 3982,
    "But": 3983,
    " El": 3984,
    " Us": 3985,
    " admin": 3986,
    "mark": 3987,
    " Name": 3988,
    "`\n": 3989,
    " Type": 3990,
    "amic": 3991,
    "pc": 3992,
    "loor": 3993,
    "FT": 3994,
    " opp": 3995,
    "cket": 3996,
    ")->": 3997,
    "tx": 3998,
    " pur": 3999,
    "uel": 4000,
    "ymbol": 4001,
    "uation": 4002,
    "anger": 4003,
    " background": 4004,
    "ecess": 4005,
    "efined": 4006,
    "........": 4007,
    " description": 4008,
    " represent": 4009,
    "\"));\n": 4010,
    "pression": 4011,
    "rowser": 4012,
    " series": 4013,
    "wards": 4014,
    "($_": 4015,
    "aise": 4016,
    " hot": 4017,
    "acity": 4018,
    "ries": 4019,
    "actions": 4020,
    "Create": 4021,
    "adio": 4022,
    "amples": 4023,
    " original": 4024,
    "ensive": 4025,
    "font": 4026,
    "stream": 4027,
    "﻿using": 4028,
    ".springframework": 4029,
    "server": 4030,
    " bill": 4031,
    "ACK": 4032,
    "ilename": 4033,
    " frame": 4034,
    " =\n": 4035,
    "Edit": 4036,
    "adius": 4037,
    " draw": 4038,
    "anks": 4039,
    " deter": 4040,
    " comes": 4041,
    "_int": 4042,
    " foreach": 4043,
    "angle": 4044,
    " elect": 4045,
    "pected": 4046,
    "Header": 4047,
    "istration": 4048,
    "False": 4049,
    " Game": 4050,
    " filter": 4051,
    "Activity": 4052,
    " larg": 4053,
    "inition": 4054,
    " \"<": 4055,
    "ised": 4056,
    " remove": 4057,
    " Trans": 4058,
    "met": 4059,
    "see": 4060,
    "Format": 4061,
    "Command": 4062,
    " EX": 4063,
    "None": 4064,
    " front": 4065,
    "ASE": 4066,
    " Rec": 4067,
    "oundation": 4068,
    " vo": 4069,
    "=\\\"": 4070,
    "(*": 4071,
    "Change": 4072,
    ".Write": 4073,
    "group": 4074,
    "ients": 4075,
    "uy": 4076,
    "****************************************************************": 4077,
    " dig": 4078,
    "hr": 4079,
    "(-": 4080,
    " gen": 4081,
    "number": 4082,
    "vec": 4083,
    "urope": 4084,
    "entry": 4085,
    "LL": 4086,
    " ste": 4087,
    "Valid": 4088,
    "'],": 4089,
    "_param": 4090,
    " selected": 4091,
    " according": 4092,
    " Dis": 4093,
    " util": 4094,
    "Buffer": 4095,
    "_error": 4096,
    " associ": 4097,
    "_SIZE": 4098,
    " wor": 4099,
    " printf": 4100,
    "rag": 4101,
    "DD": 4103,
    " Val": 4104,
    " activ": 4105,
    "Eng": 4106,
    "etime": 4107,
    " virtual": 4108,
    "aign": 4109,
    "aur": 4110,
    " Pres": 4111,
    " Exception": 4112,
    " anything": 4113,
    " Off": 4114,
    " hours": 4115,
    " war": 4116,
    "Args": 4117,
    "aging": 4118,
    " models": 4119,
    " Time": 4120,
    "Ob": 4121,
    "ams": 4122,
    "joy": 4123,
    " early": 4124,
    ".read": 4125,
    " center": 4126,
    " Initial": 4127,
    " language": 4128,
    "length": 4129,
    "xy": 4130,
    " sn": 4131,
    " inf": 4132,
    "Post": 4133,
    " ago": 4134,
    " easy": 4135,
    "_code": 4136,
    " ANY": 4137,
    "_ch": 4138,
    " download": 4139,
    "(T": 4140,
    "aved": 4141,
    "–": 4142,
    " students": 4143,
    " fig": 4144,
    "light": 4145,
    "xx": 4146,
    " buffer": 4147,
    " Dep": 4148,
    " Math": 4149,
    "ITH": 4150,
    " vari": 4151,
    " due": 4152,
    "Factory": 4153,
    " por": 4154,
    " ep": 4155,
    "otype": 4156,
    " cannot": 4157,
    " white": 4158,
    "<int": 4159,
    "tern": 4160,
    " register": 4161,
    " pred": 4162,
    "clus": 4163,
    "_date": 4164,
    " /**": 4165,
    " auth": 4166,
    " []\n": 4167,
    " period": 4168,
    "nown": 4169,
    " vot": 4170,
    " screen": 4171,
    "'d": 4172,
    "Types": 4173,
    " tmp": 4174,
    "ÐµÐ": 4175,
    "ural": 4176,
    " benef": 4177,
    "_y": 4178,
    " net": 4179,
    " States": 4180,
    "']['": 4181,
    " Ne": 4182,
    " NOT": 4183,
    " neg": 4184,
    " common": 4185,
    "scope": 4186,
    " cred": 4187,
    "ges": 4188,
    "_TYPE": 4189,
    " suggest": 4190,
    "oom": 4191,
    ".\n\n\n": 4192,
    " accept": 4193,
    " random": 4194,
    "erm": 4195,
    " Vector": 4196,
    "with": 4197,
    "TER": 4198,
    "(str": 4199,
    " respons": 4200,
    " hit": 4201,
    ".Set": 4202,
    "grid": 4203,
    "ria": 4204,
    " click": 4205,
    "undle": 4206,
    "Case": 4207,
    "insert": 4208,
    "Utils": 4209,
    " \"\"\"": 4210,
    " implement": 4211,
    "atal": 4212,
    "tempt": 4213,
    "template": 4214,
    "ocr": 4215,
    "returns": 4216,
    " players": 4217,
    "users": 4218,
    "edef": 4219,
    " These": 4220,
    " among": 4221,
    " deb": 4222,
    "ha": 4223,
    ".getElement": 4224,
    " circ": 4225,
    " answer": 4226,
    " walk": 4227,
    " treat": 4228,
    " Ge": 4229,
    " Create": 4230,
    " age": 4231,
    " req": 4232,
    "OST": 4233,
    "angular": 4234,
    "я": 4235,
    " five": 4236,
    " distributed": 4237,
    " friend": 4238,
    "TP": 4239,
    " clean": 4240,
    "ows": 4241,
    ".Controls": 4242,
    "dis": 4243,
    " words": 4244,
    ".io": 4245,
    "zy": 4246,
    " header": 4247,
    " Check": 4248,
    "’m": 4249,
    "just": 4250,
    "holder": 4251,
    "=\"<?": 4252,
    " GNU": 4253,
    " Col": 4254,
    "imest": 4255,
    "entic": 4256,
    "{\n\n": 4257,
    " tre": 4258,
    "last": 4259,
    "la": 4260,
    " York": 4261,
    "Lo": 4262,
    " discuss": 4263,
    " God": 4264,
    " issue": 4265,
    "rew": 4266,
    "Window": 4267,
    " land": 4268,
    " stream": 4269,
    " Par": 4270,
    " quality": 4271,
    "Par": 4272,
    "_num": 4273,
    " sal": 4274,
    "elves": 4275,
    "ORD": 4276,
    "(user": 4277,
    " works": 4278,
    " half": 4279,
    "enses": 4280,
    "vas": 4281,
    " police": 4282,
    "(\"/": 4283,
    "ua": 4284,
    " simple": 4285,
    "Address": 4286,
    " empty": 4287,
    "esh": 4288,
    "Update": 4289,
    " Created": 4290,
    "('.": 4291,
    ").\n": 4292,
    "                  ": 4293,
    " agre": 4294,
    " FROM": 4295,
    " cook": 4296,
    " everything": 4297,
    "ilities": 4298,
    ".status": 4299,
    " relations": 4300,
    "extern": 4301,
    " nothing": 4302,
    " running": 4303,
    "\tvoid": 4304,
    "RI": 4305,
    "_a": 4306,
    "_CON": 4307,
    "por": 4308,
    ".sub": 4309,
    "require": 4310,
    " City": 4311,
    " West": 4312,
    " mor": 4313,
    "store": 4314,
    "Equals": 4315,
    "oder": 4316,
    " na": 4317,
    " [[": 4318,
    " ('": 4319,
    " Don": 4320,
    "ERS": 4321,
    "/p": 4322,
    ".json": 4323,
    "abor": 4324,
    " someone": 4325,
    "_text": 4326,
    ".css": 4327,
    ".Tab": 4328,
    " Some": 4329,
    "ato": 4330,
    "double": 4331,
    " share": 4332,
    "(void": 4333,
    "_dir": 4334,
    " ur": 4335,
    "Stack": 4336,
    " World": 4337,
    ".X": 4338,
    "stract": 4339,
    "How": 4340,
    ".Generic": 4341,
    "icles": 4342,
    " entry": 4343,
    " changes": 4344,
    " personal": 4345,
    "(A": 4346,
    " offset": 4347,
    "_ptr": 4348,
    " pie": 4349,
    " Jan": 4350,
    "-group": 4351,
    "module": 4352,
    "Items": 4353,
    " However": 4354,
    "verage": 4355,
    ".Font": 4356,
    " events": 4357,
    ".min": 4358,
    " invol": 4359,
    "za": 4360,
    " whole": 4361,
    " needed": 4362,
    " likely": 4363,
    "rief": 4364,
    "ORM": 4365,
    "version": 4366,
    " fight": 4367,
    " ein": 4368,
    "Frame": 4369,
    "gen": 4370,
    " Out": 4371,
    "avigation": 4372,
    "Length": 4373,
    "illed": 4374,
    "quence": 4375,
    " !==": 4376,
    " Software": 4377,
    " writing": 4378,
    " rate": 4379,
    "'],\n": 4380,
    "Panel": 4381,
    "inner": 4382,
    " [\"": 4383,
    " tw": 4384,
    "cd": 4385,
    " ;\n": 4386,
    "_state": 4387,
    " Sm": 4388,
    " Mark": 4389,
    "))\n\n": 4390,
    "prot": 4391,
    " Mr": 4392,
    "method": 4393,
    "ustomer": 4394,
    "Icon": 4395,
    " correct": 4396,
    "(object": 4397,
    " More": 4398,
    " fall": 4399,
    " vol": 4400,
    " development": 4401,
    "ently": 4402,
    " si": 4403,
    "medi": 4404,
    "ving": 4405,
    "PP": 4406,
    "aker": 4407,
    " indu": 4408,
    " elif": 4409,
    " pret": 4410,
    " believe": 4411,
    "ns": 4412,
    "omet": 4413,
    " Intern": 4414,
    "Rect": 4415,
    "So": 4416,
    ".error": 4417,
    "Read": 4418,
    " features": 4419,
    " minutes": 4420,
    "---": 4421,
    "asing": 4422,
    "cret": 4423,
    "\">\r\n": 4424,
    ".annot": 4425,
    " collection": 4426,
    "'.": 4427,
    " similar": 4428,
    " taken": 4429,
    "(\"%": 4430,
    "Order": 4431,
    "']\n": 4432,
    "-md": 4433,
    " TH": 4434,
    "aced": 4435,
    " isn": 4436,
    "/j": 4437,
    " son": 4438,
    "graph": 4439,
    " Integer": 4440,
    " necess": 4441,
    "reen": 4442,
    " um": 4443,
    " \\<": 4444,
    " moment": 4445,
    " bring": 4446,
    " indic": 4447,
    "ysis": 4448,
    "Level": 4449,
    "verse": 4450,
    "urrenc": 4451,
    "_test": 4452,
    " entire": 4453,
    "Down": 4454,
    " }\n\n\n": 4455,
    "(result": 4456,
    " Read": 4457,
    "Mod": 4459,
    " trying": 4460,
    "\"),\n": 4461,
    " member": 4462,
    " Cor": 4463,
    "ODO": 4464,
    "-control": 4465,
    "untime": 4466,
    " Sim": 4467,
    "Dialog": 4468,
    "plot": 4469,
    "_on": 4470,
    " phys": 4471,
    "}/": 4472,
    " namespace": 4473,
    "\t\r\n": 4474,
    "acc": 4475,
    "Player": 4476,
    "ARE": 4477,
    " foot": 4478,
    " board": 4479,
    "part": 4480,
    " sus": 4481,
    "wise": 4482,
    " Mc": 4483,
    " push": 4484,
    "ATA": 4485,
    " please": 4486,
    "ried": 4487,
    "weet": 4488,
    "bit": 4489,
    "ided": 4490,
    "VE": 4491,
    " Sw": 4492,
    "UB": 4493,
    " types": 4494,
    "edia": 4495,
    " clos": 4496,
    "acebook": 4497,
    "When": 4498,
    " edit": 4499,
    "igger": 4500,
    " energ": 4501,
    "Container": 4502,
    " phot": 4503,
    " Count": 4504,
    " Europe": 4505,
    ".Is": 4506,
    " Russ": 4507,
    "peed": 4508,
    " Str": 4509,
    " py": 4510,
    " cult": 4511,
    " defined": 4512,
    "ccount": 4513,
    " obt": 4514,
    ".Location": 4515,
    " thread": 4516,
    "ille": 4517,
    " instead": 4518,
    "strong": 4519,
    " Sec": 4520,
    "URE": 4521,
    " idea": 4522,
    ".se": 4523,
    "emy": 4524,
    "selected": 4525,
    "Connection": 4526,
    "acing": 4527,
    "thread": 4528,
    ".next": 4529,
    " coll": 4530,
    " film": 4531,
    "istic": 4532,
    " compet": 4533,
    " conn": 4534,
    "though": 4535,
    " compan": 4536,
    "ocket": 4537,
    " teach": 4538,
    "=(": 4539,
    " phone": 4540,
    " active": 4541,
    "delete": 4542,
    "tries": 4543,
    " mo": 4544,
    " death": 4545,
    "});\n\n": 4546,
    "ocol": 4547,
    "Widget": 4548,
    " article": 4549,
    "rodu": 4550,
    "andid": 4551,
    "ы": 4552,
    " Cr": 4553,
    "ka": 4554,
    "():": 4555,
    "lood": 4556,
    "\t\t\t\n": 4557,
    " almost": 4558,
    " sell": 4559,
    "ervlet": 4560,
    "rip": 4561,
    "Unit": 4562,
    " applic": 4563,
    " connect": 4564,
    " feature": 4565,
    " via": 4566,
    "'),": 4567,
    " lim": 4568,
    "                                               ": 4569,
    " Gu": 4570,
    "Engine": 4571,
    " ens": 4572,
    " environment": 4573,
    "block": 4574,
    "HERE": 4575,
    "NULL": 4576,
    "gy": 4577,
    "tag": 4578,
    ")).": 4579,
    "exp": 4580,
    " compl": 4581,
    " install": 4582,
    " complete": 4583,
    "queue": 4584,
    "atural": 4585,
    " general": 4586,
    "thon": 4587,
    " asked": 4588,
    "ores": 4589,
    "(res": 4590,
    " reserved": 4591,
    "SP": 4592,
    " …": 4593,
    "ł": 4594,
    " signific": 4595,
    "Off": 4596,
    "                             ": 4597,
    " Ag": 4598,
    " Just": 4599,
    " Error": 4600,
    " infl": 4601,
    "adata": 4602,
    " icon": 4603,
    "asks": 4604,
    "''": 4605,
    "_LO": 4606,
    "?.": 4607,
    "account": 4608,
    " (*": 4609,
    "')\n\n": 4610,
    "rap": 4611,
    "_var": 4612,
    " FOR": 4613,
    " party": 4614,
    " Your": 4615,
    "cat": 4616,
    "stry": 4617,
    ".new": 4618,
    "boot": 4619,
    " Nov": 4620,
    " vector": 4621,
    " normal": 4622,
    " further": 4623,
    "Repository": 4624,
    " database": 4625,
    "attle": 4626,
    " music": 4627,
    " speed": 4628,
    " doc": 4629,
    "process": 4630,
    "IGHT": 4631,
    ".parse": 4632,
    " taking": 4633,
    " viol": 4634,
    "ceed": 4635,
    " After": 4636,
    " forward": 4637,
    " crit": 4638,
    "\"/>\n": 4639,
    "rot": 4640,
    " failed": 4641,
    "efore": 4642,
    " concern": 4643,
    "oe": 4644,
    "ba": 4645,
    " sender": 4646,
    " term": 4647,
    "has": 4648,
    "=\"#": 4649,
    " potential": 4650,
    "Num": 4651,
    " published": 4652,
    ".close": 4653,
    " Image": 4654,
    "straint": 4655,
    "UD": 4656,
    " Ob": 4657,
    " probably": 4658,
    "lim": 4659,
    "\":\n": 4660,
    "olume": 4661,
    " consum": 4662,
    "ague": 4663,
    "ensions": 4664,
    " investig": 4665,
    "-year": 4666,
    "');": 4667,
    "-sm": 4668,
    " enjoy": 4669,
    "orig": 4670,
    "ering": 4671,
    "cp": 4672,
    "leased": 4673,
    "plements": 4674,
    " returns": 4675,
    "pat": 4676,
    "BO": 4677,
    " House": 4678,
    ".Label": 4679,
    " weight": 4680,
    "ighb": 4681,
    " conditions": 4682,
    " exception": 4683,
    "description": 4684,
    " trad": 4685,
    "-to": 4686,
    " {}": 4687,
    " module": 4688,
    "END": 4689,
    ".ap": 4690,
    ".props": 4691,
    " constructor": 4692,
    "aves": 4693,
    " favor": 4694,
    " Now": 4695,
    ";i": 4696,
    " Main": 4697,
    "_k": 4698,
    "eries": 4699,
    "’ll": 4700,
    "transform": 4701,
    "imestamp": 4702,
    "Pre": 4703,
    " mer": 4704,
    ".res": 4705,
    "stant": 4706,
    "Location": 4707,
    "_NAME": 4708,
    " loss": 4709,
    " \n\n": 4710,
    "net": 4711,
    " engine": 4712,
    "Block": 4713,
    " issues": 4714,
    " parse": 4715,
    " Bar": 4716,
    " stay": 4717,
    " JSON": 4718,
    " dom": 4719,
    "airs": 4720,
    "wner": 4721,
    " lower": 4722,
    "\",\r\n": 4723,
    " Dem": 4724,
    "ufact": 4725,
    " ps": 4726,
    " perfect": 4727,
    "RL": 4728,
    " educ": 4729,
    "ls": 4730,
    "emory": 4731,
    "ARRANT": 4732,
    "uge": 4733,
    " exact": 4734,
    ".key": 4735,
    "alled": 4736,
    "ech": 4737,
    "ief": 4738,
    "\\/": 4739,
    "oke": 4740,
    " former": 4741,
    "alloc": 4742,
    " six": 4743,
    "ida": 4744,
    " margin": 4745,
    " heart": 4746,
    "ald": 4747,
    "pack": 4748,
    ".getElementById": 4749,
    " WARRANT": 4750,
    " rather": 4751,
    " building": 4752,
    "erman": 4753,
    "lice": 4754,
    " questions": 4755,
    "izes": 4756,
    "lege": 4757,
    "irectory": 4758,
    " je": 4759,
    " cas": 4760,
    "props": 4761,
    "utf": 4762,
    " security": 4763,
    " however": 4764,
    "weight": 4765,
    " inside": 4766,
    " president": 4767,
    "Char": 4768,
    " WITH": 4769,
    ".map": 4770,
    " graph": 4771,
    " tag": 4772,
    "_status": 4773,
    " attempt": 4774,
    "opp": 4775,
    "uses": 4776,
    "\tconst": 4777,
    " round": 4778,
    ",$": 4779,
    " friends": 4780,
    "Email": 4781,
    "?>": 4782,
    "Resource": 4783,
    "KEY": 4784,
    "osp": 4785,
    ".query": 4786,
    " North": 4787,
    "ables": 4788,
    "istrib": 4789,
    "_class": 4790,
    "ello": 4791,
    "That": 4792,
    "к": 4793,
    "pecially": 4794,
    " President": 4795,
    " campaign": 4796,
    " alt": 4797,
    "area": 4798,
    " chall": 4799,
    " opport": 4800,
    ".Con": 4801,
    " energy": 4802,
    "like": 4803,
    ".string": 4804,
    "ington": 4805,
    ")*": 4806,
    "yy": 4807,
    " profession": 4808,
    "irth": 4809,
    " seg": 4810,
    "æ": 4811,
    " hor": 4812,
    "iers": 4813,
    "can": 4814,
    " behind": 4815,
    "Product": 4816,
    "fg": 4817,
    " Sk": 4818,
    ".jpg": 4819,
    "?:": 4820,
    "];\n\n": 4821,
    " callback": 4822,
    " Http": 4823,
    "ь": 4824,
    "long": 4825,
    "MS": 4826,
    "ATH": 4827,
    " raise": 4828,
    " wanted": 4829,
    "rown": 4830,
    "utor": 4831,
    "lt": 4832,
    "]=": 4833,
    "eline": 4834,
    "MA": 4835,
    " separ": 4836,
    "cs": 4837,
    "semb": 4838,
    "Dis": 4839,
    "bserv": 4840,
    " Will": 4841,
    " policy": 4842,
    " third": 4843,
    "phone": 4844,
    " bed": 4845,
    "/g": 4846,
    ".__": 4847,
    " Inc": 4848,
    "izing": 4849,
    ".remove": 4850,
    "instance": 4851,
    ".type": 4852,
    " serv": 4853,
    "Each": 4854,
    " har": 4855,
    " Message": 4856,
    "(key": 4857,
    "SELECT": 4858,
    "Pos": 4859,
    "));\r\n": 4860,
    " recomm": 4861,
    " training": 4862,
    " Ent": 4863,
    " Char": 4864,
    "icht": 4865,
    "(file": 4866,
    " prior": 4867,
    "Game": 4868,
    " exit": 4869,
    "Params": 4870,
    ".core": 4871,
    "PC": 4872,
    "nes": 4873,
    "anced": 4874,
    "(request": 4875,
    "Password": 4876,
    "}>\n": 4877,
    " mag": 4878,
    " release": 4879,
    " shall": 4880,
    "udent": 4881,
    " South": 4882,
    "ando": 4883,
    ":'": 4884,
    ".TabIndex": 4885,
    "sk": 4886,
    "anner": 4887,
    "isset": 4888,
    " outside": 4889,
    "ledge": 4890,
    " å": 13076,
    " Rob": 4892,
    " imm": 4893,
    "!\n": 4894,
    " Web": 4895,
    "Des": 4896,
    "BC": 4897,
    "ancial": 4898,
    "Route": 4899,
    "Dec": 4900,
    "ferences": 4901,
    " purch": 4902,
    " Model": 4903,
    "ctor": 4904,
    "gn": 4905,
    "_start": 4906,
    "_un": 4907,
    ".*": 4908,
    "ises": 4909,
    " ground": 4910,
    " unique": 4911,
    " beaut": 4912,
    "{\"": 4913,
    " pour": 4914,
    " Oct": 4915,
    " tree": 4916,
    "sets": 4917,
    "_res": 4918,
    "')->": 4919,
    "_reg": 4920,
    "(\"\\": 4921,
    " byte": 4922,
    "Bl": 4923,
    " dating": 4924,
    " matter": 4925,
    " Rem": 4926,
    " '../": 4927,
    " Aug": 4928,
    " La": 4929,
    " $(": 4930,
    "ournal": 4931,
    "iam": 4932,
    " shows": 4933,
    "write": 4934,
    " ball": 4935,
    " simply": 4936,
    " fast": 4937,
    " memory": 4938,
    "ASS": 4939,
    " Of": 4940,
    "oved": 4941,
    "ante": 4942,
    "aul": 4943,
    "istry": 4944,
    ")));\n": 4945,
    " fit": 4946,
    "<string": 4947,
    " political": 4948,
    "ancel": 4949,
    "_.": 4950,
    "card": 4951,
    ".current": 4952,
    "och": 4953,
    "_image": 4954,
    "\\t": 4955,
    "#\n": 4956,
    "(L": 4957,
    " industry": 4958,
    "coming": 4959,
    " extra": 4960,
    " reported": 4961,
    ".start": 4962,
    " resources": 4963,
    " img": 4964,
    "flow": 4965,
    "_EX": 4966,
    "(null": 4967,
    " Pre": 4968,
    " wrong": 4969,
    "interface": 4970,
    "Parameter": 4971,
    "ners": 4972,
    "á»": 4973,
    "ture": 4974,
    "ersist": 4975,
    "ountry": 4976,
    " seems": 4977,
    "alance": 4978,
    "dest": 4979,
    "\tString": 4980,
    " maint": 4981,
    " unit": 4982,
    "acters": 4983,
    " TR": 4984,
    "iful": 4985,
    "exports": 4986,
    "project": 4987,
    "Application": 4988,
    "legate": 4989,
    " takes": 4990,
    "term": 4991,
    " etc": 4992,
    "uster": 4993,
    " appear": 4994,
    "address": 4995,
    " fem": 4996,
    "hs": 4997,
    " hom": 4998,
    ",-": 4999,
    " difficult": 5000,
    " coming": 5001,
    "Open": 5002,
    " settings": 5003,
    " War": 5004,
    " Then": 5005,
    " autom": 5006,
    " Foundation": 5007,
    " quite": 5008,
    "Description": 5009,
    " blog": 5010,
    "iqu": 5011,
    "PS": 5012,
    "_field": 5013,
    "Json": 5014,
    "SSION": 5015,
    " Sch": 5016,
    " LO": 5017,
    " descri": 5018,
    " everyone": 5019,
    " pretty": 5020,
    " longer": 5021,
    " menu": 5022,
    " currently": 5023,
    "sec": 5024,
    " relationship": 5025,
    "################################": 5026,
    " Map": 5027,
    "aset": 5028,
    " parameters": 5029,
    " crush": 5030,
    "\"\r\n": 5031,
    "ILITY": 5032,
    "igration": 5033,
    " cout": 5034,
    "total": 5035,
    " names": 5036,
    "ndef": 5037,
    "\");": 5038,
    "riend": 5039,
    "ynamic": 5040,
    " effort": 5041,
    " actual": 5042,
    " fields": 5043,
    "OUN": 5044,
    "ters": 5045,
    " fix": 5046,
    "_model": 5047,
    " cases": 5048,
    "CA": 5049,
    "My": 5050,
    "Interface": 5051,
    " SE": 5052,
    "]]": 5053,
    "alle": 5054,
    " National": 5055,
    " ArrayList": 5056,
    "inline": 5057,
    ".V": 5058,
    "ara": 5059,
    "refix": 5060,
    "asc": 5061,
    "Reader": 5062,
    " п": 5063,
    "astic": 5064,
    "(()": 5065,
    "Cl": 5066,
    ".annotation": 5067,
    " performance": 5068,
    "aily": 5069,
    ".toString": 5070,
    ".net": 5071,
    "views": 5072,
    ".end": 5073,
    "ayers": 5074,
    "late": 5075,
    " Apr": 5076,
    "ederal": 5077,
    "'])": 5078,
    ".body": 5079,
    " higher": 5080,
    "_fl": 5081,
    "cr": 5082,
    "alert": 5083,
    "_node": 5084,
    " Google": 5085,
    " itself": 5086,
    "Auth": 5087,
    "urrency": 5088,
    " significant": 5089,
    "append": 5090,
    " respect": 5091,
    "strap": 5092,
    " una": 5093,
    "riteria": 5094,
    "PORT": 5095,
    ".apache": 5096,
    "Output": 5097,
    " progress": 5098,
    " mid": 5099,
    " Microsoft": 5100,
    " resource": 5101,
    "ablish": 5102,
    " dim": 5103,
    ".load": 5104,
    ".App": 5105,
    " direction": 5106,
    " additional": 5107,
    "                        ": 5108,
    " numbers": 5109,
    " companies": 5110,
    ".Th": 5111,
    " sound": 5112,
    "username": 5113,
    " statement": 5114,
    " alert": 5115,
    " contract": 5116,
    "home": 5117,
    "_length": 5118,
    ".Component": 5119,
    "ev": 5120,
    ".Ex": 5121,
    "：": 5122,
    "\";": 5123,
    " High": 5124,
    " )\n\n": 5125,
    " Point": 5126,
    "oph": 5127,
    " lines": 5128,
    "->_": 5129,
    "\")\n\n": 5130,
    "ox": 5131,
    "application": 5132,
    " ]\n": 5133,
    "\n\n\n\n\n\n": 5134,
    " soon": 5135,
    "ctions": 5136,
    "inger": 5137,
    " join": 5138,
    " Pe": 5139,
    " ë": 5140,
    " las": 5141,
    ".E": 5142,
    "css": 5143,
    "/or": 5144,
    " Start": 5145,
    " TO": 5146,
    " subs": 5147,
    "conn": 5148,
    "components": 5149,
    "DEBUG": 5150,
    "quare": 5151,
    "Function": 5152,
    "endar": 5153,
    ".index": 5154,
    " fill": 5155,
    "ę": 5156,
    " choose": 5157,
    "how": 5158,
    " America": 5159,
    "assets": 5160,
    "------------": 5161,
    " Value": 5162,
    " office": 5163,
    " veh": 5164,
    " transform": 5165,
    " Art": 5166,
    " inde": 5167,
    " fn": 5168,
    " implements": 5169,
    "ango": 5170,
    "plete": 5171,
    "+\"": 5172,
    "tmp": 5173,
    "amily": 5174,
    " hash": 5175,
    "missions": 5176,
    "EST": 5177,
    "gt": 5178,
    "Provider": 5179,
    "                      ": 5180,
    " flag": 5181,
    " particip": 5182,
    "den": 5183,
    " Returns": 5184,
    " note": 5185,
    "ür": 5186,
    "pm": 5187,
    "ideos": 5188,
    " specified": 5189,
    " EN": 5190,
    "ester": 5191,
    "olid": 5192,
    " upon": 5193,
    "(std": 5194,
    "\tv": 5195,
    " '\\": 5196,
    "uz": 5197,
    " vert": 5198,
    " vict": 5199,
    "\tself": 5200,
    " \"$": 5201,
    ".k": 5202,
    " groups": 5203,
    "github": 5204,
    "lang": 5205,
    " mut": 5206,
    "TO": 5207,
    " ve": 5208,
    " Please": 5209,
    ";\n\n\n": 5210,
    "access": 5211,
    " {\"": 5212,
    "rea": 5213,
    " risk": 5214,
    "icker": 5215,
    "oggle": 5216,
    "\twhile": 5217,
    "ANG": 5218,
    ".send": 5219,
    " woman": 5220,
    " gets": 5221,
    " ign": 5222,
    " Id": 5223,
    "_log": 5224,
    "ONE": 5225,
    " evid": 5226,
    " Har": 5227,
    "_sub": 5228,
    " endl": 5229,
    " included": 5230,
    "());\n\n": 5231,
    " Ap": 5232,
    "igr": 5233,
    " sem": 5234,
    " Black": 5235,
    "doc": 5236,
    "_table": 5237,
    "                                                                ": 5238,
    "-up": 5239,
    " cause": 5240,
    " ..": 5241,
    " van": 5242,
    "_dict": 5243,
    " focus": 5244,
    "IND": 5245,
    "CESS": 5246,
    ".Log": 5247,
    " multiple": 5248,
    "ido": 5249,
    " regard": 5250,
    "-M": 5251,
    "andler": 5252,
    "ourse": 5253,
    " deg": 5254,
    ".U": 5255,
    " addition": 5256,
    " various": 5257,
    " receive": 5258,
    "ен": 5259,
    " HT": 5260,
    "Obj": 5261,
    "DF": 5262,
    " increase": 5263,
    " Open": 5264,
    "];": 5265,
    " commit": 5266,
    "?\n": 5267,
    "ategories": 5268,
    "atory": 5269,
    "ship": 5270,
    " Mich": 5271,
    " html": 5272,
    "romise": 5273,
    " leave": 5274,
    " strateg": 5275,
    "aven": 5276,
    " Console": 5277,
    "known": 5278,
    "-n": 5279,
    "_LE": 5280,
    ".component": 5281,
    " bre": 5282,
    "Session": 5283,
    "iance": 5284,
    " align": 5285,
    "typedef": 5286,
    "_result": 5287,
    " WHERE": 5288,
    ".split": 5289,
    " reading": 5290,
    "FAULT": 5291,
    " clo": 5292,
    " notice": 5293,
    "_pr": 5294,
    "arter": 5295,
    " lock": 5296,
    " standard": 5297,
    "etic": 5298,
    "ellow": 5299,
    " padding": 5300,
    " His": 5301,
    " states": 5302,
    "_cast": 5303,
    "(P": 5304,
    "aa": 5305,
    " internal": 5306,
    "ean": 5307,
    " PRO": 5308,
    " Key": 5309,
    " especially": 5310,
    "ming": 5311,
    " cross": 5312,
    " national": 5313,
    "_object": 5314,
    "filter": 5315,
    " script": 5316,
    ".update": 5317,
    "_i": 5318,
    " Assert": 5319,
    "/core": 5320,
    "%%%%": 5321,
    " problems": 5322,
    "istor": 5323,
    " .=": 5324,
    " arch": 5325,
    " written": 5326,
    " milit": 5327,
    "MENT": 5328,
    ".ch": 5329,
    "cape": 5330,
    " Mus": 5331,
    "_config": 5332,
    " API": 5333,
    "foot": 5334,
    " images": 5335,
    "endl": 5336,
    ".In": 5337,
    "First": 5338,
    " platform": 5339,
    ".prot": 5340,
    "Option": 5341,
    "ste": 5342,
    " TODO": 5343,
    " force": 5344,
    ".cont": 5345,
    "\techo": 5346,
    " Dav": 5347,
    "Ptr": 5348,
    "(B": 5349,
    "RT": 5350,
    " Base": 5351,
    "]['": 5352,
    " announc": 5353,
    "console": 5354,
    " Py": 5355,
    "ds": 5356,
    ".as": 5357,
    " prevent": 5358,
    "apan": 5359,
    " {'": 5360,
    "}</": 5361,
    " Service": 5362,
    " Sen": 5363,
    "ador": 5364,
    "profile": 5365,
    "Top": 5366,
    " iter": 5367,
    "po": 5368,
    "IES": 5369,
    "JSON": 5370,
    "IE": 5371,
    "iant": 5372,
    "、": 5373,
    "_j": 5374,
    " Sept": 5375,
    "_map": 5376,
    "bum": 5377,
    "(context": 5378,
    " Home": 5379,
    "ians": 5380,
    "GB": 5381,
    " living": 5382,
    " pattern": 5383,
    "(input": 5384,
    "icient": 5385,
    "Core": 5386,
    " entity": 5387,
    " integ": 5388,
    "Changed": 5389,
    " useful": 5390,
    ".info": 5391,
    " tool": 5392,
    "(item": 5393,
    " ok": 5394,
    " feed": 5395,
    "IX": 5396,
    "és": 5397,
    " News": 5398,
    "remove": 5399,
    "erry": 5400,
    "\t\t\t\t\t\t\t\t\t": 5401,
    "ipment": 5402,
    "ares": 5403,
    "Do": 5404,
    "Current": 5405,
    ".content": 5406,
    ".Group": 5407,
    "ustral": 5408,
    " с": 5409,
    "})": 5410,
    " popular": 5411,
    " stre": 5412,
    " methods": 5413,
    "_ERROR": 5414,
    "Left": 5415,
    "cal": 5416,
    "bsp": 5417,
    ".ToString": 5418,
    " dir": 5419,
    " allowed": 5420,
    " impact": 5421,
    "\")]\n": 5422,
    ".config": 5423,
    " elements": 5424,
    " prote": 5425,
    " train": 5426,
    ".tr": 5427,
    "rs": 5428,
    " Republic": 5429,
    " Task": 5430,
    "aries": 5431,
    "(D": 5432,
    "(get": 5433,
    "…\n\n": 5434,
    " related": 5435,
    " vers": 5436,
    " sil": 5437,
    " \"\";\n": 5438,
    " cmd": 5439,
    " technology": 5440,
    ".width": 5441,
    "Float": 5442,
    " Use": 5443,
    "Body": 5444,
    "should": 5445,
    ".join": 5446,
    "Font": 5447,
    "llum": 5448,
    "ycle": 5449,
    " Brit": 5450,
    " mit": 5451,
    " scale": 5452,
    " (_": 5453,
    "ernel": 5454,
    "\"))\n": 5455,
    " score": 5456,
    "/v": 5457,
    " student": 5458,
    "UC": 5459,
    ".show": 5460,
    " average": 5461,
    "Enabled": 5462,
    "(ex": 5463,
    "common": 5464,
    "imation": 5465,
    ":@\"": 5466,
    "chie": 5467,
    " ...\n\n": 5468,
    "river": 5469,
    " March": 5470,
    "category": 5471,
    "fin": 5472,
    " court": 5473,
    "в": 5474,
    "Server": 5475,
    " container": 5476,
    "-st": 5477,
    "_for": 5478,
    " parts": 5479,
    " decision": 5480,
    "obs": 5481,
    "oub": 5482,
    "mitted": 5483,
    " $('#": 5484,
    " saw": 5485,
    " approach": 5486,
    "ICE": 5487,
    " saying": 5488,
    " anyone": 5489,
    "meta": 5490,
    "SD": 5491,
    " song": 5492,
    "display": 5493,
    "Oper": 5494,
    "outes": 5495,
    " channel": 5496,
    " changed": 5497,
    " finally": 5499,
    "_number": 5500,
    "Please": 5501,
    "à¤": 5502,
    "oring": 5503,
    "-re": 5504,
    " kill": 5505,
    " drug": 5506,
    "window": 5507,
    " convert": 5508,
    "ombre": 5509,
    " ways": 5510,
    "Helper": 5511,
    " First": 5512,
    "(__": 5513,
    "urity": 5514,
    " Windows": 5515,
    "ees": 5516,
    " mat": 5517,
    "rapper": 5518,
    " plus": 5519,
    "anges": 5520,
    "\"].": 5521,
    "azon": 5522,
    "/t": 5523,
    "lat": 5524,
    "aste": 5525,
    " profile": 5526,
    " ready": 5527,
    "#ifndef": 5528,
    "rote": 5529,
    " sense": 5530,
    "Gener": 5531,
    " Config": 5532,
    "omy": 5533,
    " June": 5534,
    " latest": 5535,
    " saf": 5536,
    " region": 5537,
    " deep": 5538,
    "witch": 5539,
    " Park": 5540,
    "}`": 5541,
    " From": 5542,
    "II": 5543,
    " cv": 5544,
    " reach": 5545,
    " counter": 5546,
    " Work": 5547,
    " URL": 5548,
    " Update": 5549,
    "',\r\n": 5550,
    " immedi": 5551,
    "close": 5552,
    "ados": 5553,
    "ferred": 5554,
    " weeks": 5555,
    "urg": 5556,
    " damage": 5557,
    " lost": 5558,
    "ani": 5559,
    "_lo": 5560,
    " himself": 5561,
    " dog": 5562,
    ")]\n": 5563,
    "ï¿": 5564,
    "pir": 5565,
    "tt": 5566,
    " paper": 5567,
    " thems": 5568,
    "second": 5569,
    " staff": 5570,
    " Input": 5571,
    "\"+": 5572,
    " Facebook": 5573,
    " alloc": 5574,
    " sched": 5575,
    "ACE": 5576,
    " themselves": 5577,
    " Component": 5578,
    " driver": 5579,
    "ja": 5580,
    "(path": 5581,
    " category": 5582,
    "alls": 5583,
    "pu": 5584,
    "lluminate": 5585,
    " Action": 5586,
    ".button": 5587,
    " GL": 5588,
    "istics": 5589,
    " oil": 5590,
    " stock": 5591,
    ">'": 5592,
    " dead": 5593,
    "VAL": 5594,
    "QUE": 5595,
    "************************************************************************": 5596,
    " charg": 5597,
    "Return": 5598,
    " ful": 5599,
    "dom": 5600,
    " rules": 5601,
    " modify": 5602,
    " eval": 5603,
    "ham": 5604,
    "atement": 5605,
    "\\<": 5606,
    "ula": 5607,
    "=False": 5608,
    "RA": 5609,
    " contains": 5610,
    " stack": 5611,
    "mar": 5612,
    " {}\n": 5613,
    " undefined": 5614,
    "Ass": 5615,
    " China": 5616,
    "vey": 5617,
    "*\n": 5618,
    " playing": 5619,
    ")/": 5620,
    "actor": 5621,
    " bottom": 5622,
    "lier": 5623,
    " Number": 5624,
    " couple": 5625,
    "DC": 5626,
    " SO": 5627,
    "gor": 5628,
    ".setText": 5629,
    "success": 5630,
    "command": 5631,
    "Filter": 5632,
    " Our": 5633,
    "_item": 5634,
    " ctx": 5635,
    " road": 5636,
    "Version": 5637,
    "case": 5638,
    "urt": 5639,
    "avior": 5640,
    "ych": 5641,
    "sembly": 5642,
    " Product": 5643,
    " held": 5644,
    "afe": 5645,
    " includes": 5646,
    "<quote": 5647,
    " avoid": 5648,
    " Fin": 5649,
    " Mod": 5650,
    " tab": 5651,
    "ano": 5652,
    "ipping": 5654,
    "-e": 5655,
    " insert": 5656,
    "target": 5657,
    "chan": 5658,
    ".Model": 5659,
    "IME": 5660,
    "\\\n": 5661,
    " machine": 5662,
    "avy": 5663,
    " NO": 5664,
    " Inter": 5665,
    " operation": 5666,
    "modal": 5667,
    "Tag": 5668,
    "]:": 5669,
    " production": 5670,
    " areas": 5671,
    " ren": 5672,
    "_from": 5673,
    "nbsp": 5674,
    " operator": 5675,
    "men": 5676,
    "apped": 5677,
    "_per": 5678,
    "zen": 5679,
    "(\".": 5680,
    ".save": 5681,
    "=\"{{": 5682,
    " tor": 5683,
    "(response": 5684,
    " candid": 5685,
    " conv": 5686,
    "ailed": 5687,
    " Lib": 5688,
    "comp": 5689,
    "ura": 5690,
    "�": 5691,
    " Here": 5692,
    " argument": 5693,
    "hood": 5694,
    " establish": 5695,
    "ography": 5696,
    " onClick": 5697,
    "ambda": 5698,
    " sch": 5699,
    " movie": 5700,
    " sec": 5701,
    " activity": 5702,
    "ا": 5703,
    " sql": 5704,
    "_all": 5705,
    "incip": 5706,
    " provides": 5707,
    " sys": 5708,
    "acket": 5709,
    " wasn": 5710,
    " uses": 5711,
    " Function": 5712,
    ".google": 5713,
    " Result": 5714,
    "Visible": 5715,
    "agma": 5716,
    "elcome": 5717,
    " Sy": 5718,
    " Cent": 5719,
    "ALSE": 5720,
    "ación": 5721,
    "EXT": 5722,
    " license": 5723,
    " Long": 5724,
    " accom": 5725,
    " ability": 5726,
    ".height": 5727,
    "Active": 5728,
    "ological": 5729,
    "oly": 5730,
    ")),": 5731,
    ".Se": 5732,
    " parameter": 5733,
    "prite": 5734,
    "ABILITY": 5735,
    ".service": 5736,
    " Group": 5737,
    "_query": 5738,
    " Item": 5739,
    "ining": 5740,
    " jud": 5741,
    "ims": 5742,
    "fix": 5743,
    "inder": 5744,
    "agram": 5745,
    " functions": 5746,
    " experi": 5747,
    " Em": 5748,
    " rot": 5749,
    " pen": 5750,
    ".btn": 5751,
    " AS": 5752,
    "#ifdef": 5753,
    " choice": 5754,
    " Page": 5755,
    "_PRO": 5756,
    "QU": 5757,
    "å": 5758,
    "antity": 5759,
    "words": 5761,
    " readonly": 5762,
    " flex": 5763,
    "protected": 5764,
    " Any": 5765,
    " characters": 5766,
    "enced": 5767,
    " July": 5768,
    "iler": 5769,
    "Card": 5770,
    "urance": 5771,
    " rev": 5772,
    ".event": 5773,
    "aly": 5774,
    " wonder": 5775,
    " Port": 5776,
    " legal": 5777,
    "role": 5778,
    " ten": 5779,
    " goes": 5780,
    "MP": 5781,
    "white": 5782,
    "):\r\n": 5783,
    "))\r\n": 5784,
    " reference": 5785,
    " mis": 5786,
    " Project": 5787,
    "icks": 5788,
    ">&": 5789,
    "CON": 5790,
    " repl": 5791,
    " regular": 5792,
    "Storage": 5793,
    "ramework": 5794,
    " goal": 5795,
    " touch": 5796,
    ".widget": 5797,
    " built": 5798,
    "des": 5799,
    "Part": 5800,
    "(re": 5801,
    " worth": 5802,
    "hib": 5803,
    "game": 5804,
    " в": 5805,
    "acion": 5806,
    " White": 5807,
    "(type": 5808,
    "(`": 5809,
    " natural": 5810,
    " inj": 5811,
    " calcul": 5812,
    " April": 5813,
    ".List": 5814,
    " associated": 5815,
    "\tSystem": 5816,
    "~~": 5817,
    "=[": 5818,
    " storage": 5819,
    " bytes": 5820,
    " travel": 5821,
    " sou": 5822,
    " passed": 5823,
    "!=": 5824,
    "ascript": 5825,
    ".open": 5826,
    " grid": 5827,
    " bus": 5828,
    " recogn": 5829,
    "Ab": 5830,
    " hon": 5831,
    " Center": 5832,
    " prec": 5833,
    "build": 5834,
    "HTML": 5835,
    " San": 5836,
    " countries": 5837,
    "aled": 5838,
    "token": 5839,
    "kt": 5840,
    " qual": 5841,
    "Last": 5842,
    "adow": 5843,
    " manufact": 5844,
    "idad": 5845,
    "jango": 5846,
    "Next": 5847,
    "xf": 5848,
    ".a": 5849,
    " porno": 5850,
    " PM": 5851,
    "erve": 5852,
    "iting": 5853,
    "_th": 5854,
    "ci": 5855,
    "=None": 5856,
    "gs": 5857,
    " login": 5858,
    "atives": 5859,
    "']);\n": 5860,
    "ą": 5861,
    " ill": 5862,
    "IA": 5863,
    "children": 5864,
    "DO": 5865,
    " levels": 5866,
    " {{": 5867,
    " looks": 5868,
    " \"#": 5869,
    "ToString": 5870,
    " necessary": 5871,
    "   \n": 5872,
    "cell": 5873,
    "Entry": 5874,
    " '#": 5875,
    " extrem": 5876,
    "Selector": 5877,
    " placeholder": 5878,
    "Load": 5879,
    " released": 5880,
    "ORE": 5881,
    "Enumer": 5882,
    " TV": 5883,
    "SET": 5884,
    "inq": 5885,
    "Press": 5886,
    " Department": 5887,
    " properties": 5888,
    " respond": 5889,
    "Search": 5890,
    "ael": 5891,
    " requ": 5892,
    " Book": 5893,
    "/\n": 5894,
    "(st": 5895,
    " financial": 5896,
    "icket": 5897,
    "_input": 5898,
    " threat": 5899,
    "(in": 5900,
    "Strip": 5901,
    "ì": 5902,
    "ção": 5903,
    " evidence": 5904,
    "));": 5905,
    " Bro": 5906,
    " [];\n": 5907,
    " ou": 5908,
    "buf": 5909,
    "Script": 5910,
    "dat": 5911,
    " rule": 5912,
    "#import": 5913,
    "=\"/": 5914,
    "Serial": 5915,
    " starting": 5916,
    "[index": 5917,
    "ae": 5918,
    " contrib": 5919,
    "session": 5920,
    "_new": 5921,
    "utable": 5922,
    "ober": 5923,
    " \"./": 5924,
    " logger": 5925,
    " recently": 5926,
    " returned": 5927,
    "\r\r\n": 5928,
    ")))\n": 5929,
    "itions": 5930,
    " seek": 5931,
    " communic": 5932,
    " \".": 5933,
    " username": 5934,
    "ECT": 5935,
    "DS": 5936,
    " otherwise": 5937,
    " German": 5938,
    ".aw": 5939,
    "Adapter": 5940,
    "ixel": 5941,
    " systems": 5942,
    " drop": 5943,
    " structure": 5944,
    " $(\"#": 5945,
    "encies": 5946,
    "anning": 5947,
    " Link": 5948,
    " Response": 5949,
    " stri": 5950,
    "ż": 5951,
    " DB": 5952,
    "æ": 5953,
    "android": 5954,
    "submit": 5955,
    "otion": 5956,
    "(@": 5957,
    ".test": 5958,
    "\n\n\n\n\n\n\n\n": 5959,
    "];\r\n": 5960,
    " directly": 5961,
    " \"%": 5962,
    "ris": 5963,
    "elta": 5964,
    "AIL": 5965,
    "){\r\n": 5966,
    "mine": 5967,
    "                          ": 5968,
    "(k": 5969,
    "bon": 5970,
    "asic": 5971,
    "pite": 5972,
    "___": 5973,
    "Max": 5974,
    " errors": 5975,
    " While": 5976,
    " arguments": 5977,
    " ensure": 5978,
    "Right": 5979,
    "-based": 5980,
    "Web": 5981,
    " -=": 5982,
    " introdu": 5983,
    " Inst": 5984,
    " Wash": 5985,
    "ordin": 5986,
    "join": 5987,
    "Database": 5988,
    " grad": 5989,
    " usually": 5990,
    "ITE": 5991,
    "Props": 5992,
    "?>\n": 5993,
    " Go": 5994,
    "@Override": 5995,
    "REF": 5996,
    " ip": 5997,
    " Austral": 5998,
    " ist": 5999,
    "ViewById": 6000,
    " serious": 6001,
    " customer": 6002,
    ".prototype": 6003,
    "odo": 6004,
    "cor": 6005,
    " door": 6006,
    " WITHOUT": 6007,
    " plant": 6008,
    " began": 6009,
    " distance": 6010,
    "()).": 6011,
    " chance": 6012,
    " ord": 6013,
    "came": 6014,
    "pragma": 6015,
    " protect": 6016,
    "ragment": 6017,
    " Node": 6018,
    "ening": 6019,
    "ч": 6020,
    " route": 6021,
    " School": 6022,
    "hi": 6023,
    " neighb": 6024,
    "After": 6025,
    "licit": 6026,
    " contr": 6027,
    " primary": 6028,
    "AA": 6029,
    ".WriteLine": 6030,
    "utils": 6031,
    " bi": 6032,
    "Red": 6033,
    ".Linq": 6034,
    ".object": 6035,
    " leaders": 6036,
    "unities": 6037,
    " gun": 6038,
    "onth": 6039,
    " Dev": 6040,
    "FILE": 6041,
    " comments": 6042,
    "_len": 6043,
    "arrow": 6044,
    "amount": 6045,
    "Range": 6046,
    "sert": 6047,
    "GridView": 6048,
    " updated": 6049,
    " Mo": 6050,
    " inform": 6051,
    "ociety": 6052,
    "ala": 6053,
    "Access": 6054,
    " hab": 6055,
    " creat": 6056,
    "_arg": 6057,
    " January": 6058,
    " Day": 6059,
    "\")\r\n": 6060,
    "uple": 6061,
    "document": 6062,
    "gorith": 6063,
    "menu": 6064,
    " Over": 6065,
    "bb": 6066,
    ".title": 6067,
    "_out": 6068,
    " led": 6069,
    "uri": 6070,
    " ?></": 6071,
    "gl": 6072,
    " bank": 6073,
    "ayment": 6074,
    "\tprintf": 6075,
    "MD": 6076,
    " sample": 6077,
    " hands": 6078,
    " Version": 6079,
    "uario": 6080,
    " offers": 6081,
    "ityEngine": 6082,
    " shape": 6083,
    " sleep": 6084,
    "_point": 6085,
    "Settings": 6086,
    " achie": 6087,
    " sold": 6088,
    "ota": 6089,
    ".bind": 6090,
    "Am": 6091,
    " safe": 6092,
    "Store": 6093,
    " shared": 6094,
    " priv": 6095,
    "_VAL": 6096,
    " sens": 6097,
    "){": 6098,
    " remember": 6099,
    "shared": 6100,
    "element": 6101,
    " shoot": 6102,
    "Vert": 6103,
    "cout": 6104,
    " env": 6105,
    "_label": 6106,
    " >\n": 6107,
    "run": 6108,
    " scene": 6109,
    "(array": 6110,
    "device": 6111,
    "_title": 6112,
    "agon": 6113,
    "]\r\n": 6114,
    "aby": 6115,
    " became": 6116,
    "boolean": 6117,
    " park": 6118,
    " Code": 6119,
    "upload": 6120,
    "riday": 6121,
    " September": 6122,
    "Fe": 6123,
    " sen": 6124,
    "cing": 6125,
    "FL": 6126,
    "Col": 6127,
    "uts": 6128,
    "_page": 6129,
    "inn": 6130,
    " implied": 6131,
    "aling": 6132,
    " yourself": 6133,
    ".Count": 6134,
    "conf": 6135,
    " aud": 6136,
    "_init": 6137,
    ".)": 6138,
    " wrote": 6139,
    "NG": 6140,
    ".Error": 6141,
    "ä»": 6142,
    ".for": 6143,
    " equal": 6144,
    " Request": 6145,
    " serial": 6146,
    " allows": 6147,
    "XX": 6148,
    " middle": 6149,
    "chor": 6150,
    "erval": 6152,
    ".Column": 6153,
    "reading": 6154,
    " escort": 6155,
    " August": 6156,
    " quickly": 6157,
    " weap": 6158,
    " CG": 6159,
    "ropri": 6160,
    "ho": 6161,
    " cop": 6162,
    "(struct": 6163,
    " Big": 6164,
    " vs": 6165,
    " frequ": 6166,
    ".Value": 6167,
    " actions": 6168,
    " proper": 6169,
    " inn": 6170,
    " objects": 6171,
    " matrix": 6172,
    "avascript": 6173,
    " ones": 6174,
    ".group": 6175,
    " green": 6176,
    " paint": 6177,
    "ools": 6178,
    "ycl": 6179,
    "encode": 6180,
    "olt": 6181,
    "comment": 6182,
    ".api": 6183,
    "Dir": 6184,
    " une": 6185,
    "izont": 6186,
    ".position": 6187,
    " designed": 6188,
    "_val": 6189,
    "avi": 6190,
    "iring": 6191,
    "tab": 6192,
    " layer": 6193,
    " views": 6194,
    " reve": 6195,
    "rael": 6196,
    " ON": 6197,
    "rics": 6198,
    "np": 6199,
    " core": 6200,
    "());\r\n": 6201,
    "Main": 6202,
    " expert": 6203,
    "\t\t\r\n": 6204,
    "_en": 6205,
    " />": 6206,
    "utter": 6207,
    "IAL": 6208,
    "ails": 6209,
    " King": 6210,
    "*/\n\n": 6211,
    " Met": 6212,
    "_end": 6213,
    "addr": 6214,
    "ora": 6215,
    " ir": 6216,
    "Min": 6217,
    " surpr": 6218,
    " repe": 6219,
    " directory": 6220,
    "PUT": 6221,
    "-S": 6222,
    " election": 6223,
    "haps": 6224,
    ".pre": 6225,
    "cm": 6226,
    "Values": 6227,
    " \"\n": 6228,
    "column": 6229,
    "ivil": 6230,
    "Login": 6231,
    "inue": 6232,
    " beautiful": 6233,
    " secret": 6234,
    "(event": 6235,
    " chat": 6236,
    "ums": 6237,
    " origin": 6238,
    " effects": 6239,
    " management": 6240,
    "illa": 6241,
    "tk": 6242,
    " setting": 6243,
    " Cour": 6244,
    " massage": 6245,
    "\tend": 6246,
    " happy": 6247,
    " finish": 6248,
    " camera": 6249,
    " Ver": 6250,
    " Democr": 6251,
    " Her": 6252,
    "(Q": 6253,
    "cons": 6254,
    "ita": 6255,
    " '.": 6256,
    "{}": 6257,
    "\tC": 6258,
    " stuff": 6259,
    " :\n": 6260,
    " AR": 6261,
    "Task": 6262,
    "hidden": 6263,
    "eros": 6264,
    "IGN": 6265,
    "atio": 6266,
    " Health": 6267,
    "olute": 6268,
    "Enter": 6269,
    "'>": 6270,
    " Twitter": 6271,
    " County": 6272,
    "scribe": 6273,
    " =>\n": 6274,
    " hy": 6275,
    "fit": 6276,
    " military": 6277,
    " sale": 6278,
    "required": 6279,
    "non": 6280,
    "bootstrap": 6281,
    "hold": 6282,
    "rim": 6283,
    "-old": 6284,
    " Down": 6285,
    " mention": 6286,
    "contact": 6287,
    "_group": 6288,
    "oday": 6289,
    " town": 6290,
    " solution": 6291,
    "uate": 6292,
    "elling": 6293,
    "]->": 6294,
    "otes": 6295,
    "ental": 6296,
    "omen": 6297,
    "ospital": 6298,
    " Sup": 6299,
    "_EN": 6300,
    " slow": 6301,
    "SESSION": 6302,
    " blue": 6303,
    "ago": 6304,
    " lives": 6305,
    " ^": 6306,
    ".un": 6307,
    "inst": 6308,
    "enge": 6309,
    " customers": 6310,
    " cast": 6311,
    "udget": 6312,
    "！": 6313,
    "icens": 6314,
    " determin": 6315,
    "Selected": 6316,
    "_pl": 6317,
    "ueue": 6318,
    " dark": 6319,
    "//\n\n": 6320,
    "si": 6321,
    "thern": 6322,
    " Japan": 6323,
    "/w": 6324,
    "PU": 6325,
    " East": 6326,
    "ovie": 6327,
    " package": 6328,
    " nor": 6329,
    " api": 6330,
    "bot": 6331,
    "\"];\n": 6332,
    "_post": 6333,
    "ulate": 6334,
    " club": 6335,
    "'));\n": 6336,
    " loop": 6337,
    "PIO": 6338,
    "ione": 6339,
    "shot": 6340,
    "Initial": 6341,
    " played": 6342,
    "register": 6343,
    "rought": 6344,
    "_max": 6345,
    "acement": 6346,
    "match": 6347,
    "raphics": 6348,
    "AST": 6349,
    " existing": 6350,
    " complex": 6351,
    "DA": 6352,
    ".Ch": 6353,
    ".common": 6354,
    "mo": 6355,
    " '../../": 6356,
    "ito": 6357,
    " analysis": 6358,
    " deliver": 6359,
    "                \n": 6360,
    "idx": 6361,
    "ongo": 6363,
    " English": 6364,
    "<!--": 6365,
    " computer": 6366,
    "ENSE": 6367,
    " pas": 6368,
    " rais": 6369,
    "Hash": 6370,
    " mobile": 6371,
    " owner": 6372,
    "FIG": 6373,
    "                                                   ": 6374,
    "thes": 6375,
    " attr": 6376,
    "wd": 6377,
    ".time": 6378,
    "awn": 6379,
    " treatment": 6380,
    " Ac": 6381,
    ".View": 6382,
    "impl": 6383,
    "more": 6384,
    "pass": 6385,
    " ha": 6386,
    ".from": 6387,
    " leading": 6388,
    "FFFF": 6389,
    "(error": 6390,
    ".ui": 6391,
    "atar": 6392,
    "aders": 6393,
    "dates": 6394,
    " zu": 6395,
    " flow": 6396,
    "Target": 6397,
    " involved": 6398,
    " io": 6399,
    "parse": 6400,
    "$_": 6401,
    "hest": 6402,
    ".int": 6403,
    "-item": 6404,
    "asy": 6405,
    "Sp": 6406,
    " shift": 6407,
    "NT": 6408,
    " tf": 6409,
    "_TR": 6410,
    ".web": 6411,
    "CS": 6412,
    " })": 6413,
    " eyes": 6414,
    "_z": 6415,
    "');\r\n": 6416,
    "iforn": 6417,
    " {@": 6418,
    " nice": 6419,
    ".list": 6420,
    "    \r\n": 6421,
    " floor": 6422,
    " redirect": 6423,
    " UK": 6424,
    "(['": 6425,
    " wish": 6426,
    " capt": 6427,
    "legal": 6428,
    " IO": 6429,
    " stage": 6430,
    ".String": 6431,
    " Afr": 6432,
    "igen": 6433,
    " SH": 6434,
    "Delete": 6435,
    "ells": 6436,
    " solid": 6437,
    " meeting": 6438,
    " worked": 6439,
    " editor": 6440,
    "iny": 6441,
    "м": 6442,
    "_read": 6443,
    ".Id": 6444,
    "eff": 6445,
    "Offset": 6446,
    "cha": 6447,
    "USER": 6448,
    "\t\t   ": 6449,
    "ipped": 6450,
    " dict": 6451,
    " Run": 6452,
    ".hpp": 6453,
    " ang": 6454,
    "xml": 6455,
    "imple": 6456,
    " medical": 6457,
    "_token": 6458,
    "connect": 6459,
    " hour": 6460,
    " controller": 6461,
    "_message": 6462,
    "UID": 6463,
    "Gr": 6464,
    "anded": 6465,
    "_CH": 6466,
    " books": 6467,
    " speak": 6468,
    "aming": 6469,
    " mount": 6470,
    "Record": 6471,
    "\tstruct": 6472,
    ".Web": 6473,
    "ondon": 6474,
    " //\n": 6475,
    " felt": 6476,
    ".Auto": 6477,
    "idge": 6478,
    "_pos": 6479,
    "PR": 6480,
    " modern": 6481,
    "Collection": 6482,
    "_msg": 6483,
    "CD": 6484,
    " Lo": 6485,
    " seconds": 6486,
    "ibly": 6487,
    ".equals": 6488,
    " international": 6489,
    "#pragma": 6490,
    "ooth": 6491,
    "Writer": 6492,
    "iate": 6493,
    " cele": 6494,
    " Bit": 6495,
    "ivo": 6496,
    "ivery": 6497,
    "rd": 6498,
    "HECK": 6499,
    " cache": 6500,
    ".count": 6501,
    " roll": 6502,
    ".Read": 6503,
    "RED": 6504,
    " setup": 6505,
    "izontal": 6506,
    "models": 6507,
    "argv": 6508,
    " considered": 6509,
    "=\"../": 6510,
    "settings": 6511,
    " Rel": 6512,
    " growth": 6513,
    " mix": 6514,
    " Washington": 6515,
    " plt": 6516,
    " IM": 6517,
    "áº": 6518,
    " turned": 6519,
    " DateTime": 6520,
    " Wed": 6521,
    "(url": 6522,
    " \"-": 6523,
    " letter": 6524,
    "Async": 6525,
    "                            ": 6526,
    " October": 6527,
    "_line": 6528,
    " attention": 6529,
    " collect": 6530,
    " Hash": 6531,
    " imag": 6532,
    "Tree": 6533,
    " situation": 6534,
    "ette": 6535,
    "_no": 6536,
    "IVE": 6537,
    " von": 6538,
    ".target": 6539,
    " knowledge": 6540,
    " drive": 6541,
    ".post": 6542,
    " blood": 6543,
    " cit": 6544,
    "primary": 6545,
    " configuration": 6546,
    "tee": 6547,
    " photo": 6548,
    "isode": 6549,
    "Trace": 6550,
    " gave": 6551,
    " shot": 6552,
    " Air": 6553,
    " mother": 6554,
    "price": 6555,
    " morning": 6556,
    ")){\n": 6557,
    "-x": 6558,
    " trade": 6559,
    " desc": 6560,
    " &&\n": 6561,
    " parents": 6562,
    "Api": 6563,
    "å": 6564,
    "ted": 6565,
    "wer": 6566,
    " æ": 65013,
    " sy": 6568,
    " Ke": 6569,
    "Parser": 6570,
    "å": 6571,
    "ancy": 6572,
    " piece": 6573,
    "ifornia": 6574,
    "toString": 6575,
    "ran": 6576,
    "iding": 6577,
    "PTION": 6578,
    "comes": 6579,
    "/lic": 6580,
    ".client": 6581,
    "El": 6582,
    "Long": 6583,
    " professional": 6584,
    "rupt": 6585,
    "va": 6586,
    " completely": 6587,
    " practice": 6588,
    " selection": 6589,
    "Rem": 6590,
    "ini": 6591,
    " cam": 6592,
    "REE": 6593,
    " sites": 6594,
    "pa": 6595,
    "ATUS": 6596,
    "ст": 6597,
    "arrant": 6598,
    "*(": 6599,
    "_KEY": 6600,
    " Button": 6601,
    " Friday": 6602,
    "sequ": 6603,
    " reader": 6604,
    " messages": 6605,
    "è¯": 6606,
    " buf": 6607,
    "Ke": 6608,
    " nov": 6609,
    "HP": 6610,
    "Msg": 6611,
    "align": 6612,
    "arily": 6613,
    " ',": 6614,
    "_with": 6615,
    " das": 6616,
    " heard": 6617,
    "atomic": 6618,
    "rial": 6619,
    ")[": 6620,
    " dise": 6621,
    "@end": 6622,
    " gold": 6623,
    " fair": 6624,
    " sales": 6625,
    ".Button": 6626,
    "strict": 6627,
    "save": 6628,
    " measure": 6629,
    " \"+": 6630,
    "ecause": 6631,
    "ViewController": 6632,
    " Table": 6633,
    ".param": 6634,
    " decided": 6635,
    "(((": 6636,
    "INFO": 6637,
    " opportunity": 6638,
    "Te": 6639,
    "ICENSE": 6640,
    "ccording": 6641,
    "ki": 6642,
    " UN": 6643,
    " contain": 6644,
    " manager": 6645,
    " pain": 6646,
    " Fire": 6647,
    "rome": 6648,
    " plans": 6649,
    "Found": 6650,
    "lay": 6651,
    " December": 6652,
    " influ": 6653,
    "rench": 6655,
    "                                 ": 6656,
    "azing": 6657,
    "brief": 6658,
    "call": 6659,
    "wood": 6660,
    " loaded": 6661,
    " grand": 6662,
    "/f": 6663,
    "imp": 6664,
    "_U": 6665,
    "STR": 6666,
    "•": 6667,
    " credit": 6668,
    ".Color": 6669,
    "orge": 6670,
    "QUEST": 6671,
    " difference": 6672,
    " PC": 6673,
    "wargs": 6674,
    " pub": 6675,
    "unday": 6676,
    " fra": 6677,
    ".max": 6678,
    " tried": 6679,
    "annels": 6680,
    "send": 6681,
    " reports": 6682,
    " adult": 6683,
    "äº": 6684,
    " consist": 6685,
    " Street": 6686,
    " Program": 6687,
    "SQL": 6688,
    "Matrix": 6689,
    "ouncil": 6690,
    "-A": 6691,
    "\tw": 6692,
    " whose": 6693,
    " relig": 6694,
    " Sex": 6695,
    " gives": 6696,
    "none": 6697,
    ".message": 6698,
    "(G": 6699,
    ".awt": 6700,
    "-right": 6701,
    " November": 6702,
    "ellig": 6703,
    "utive": 6704,
    "ă": 6705,
    "overn": 6706,
    " easily": 6707,
    " ideas": 6708,
    " н": 6709,
    "/css": 6710,
    "lying": 6711,
    "elle": 6712,
    "Can": 6713,
    "_color": 6714,
    "ов": 6715,
    " pair": 6716,
    "ngth": 6717,
    " split": 6718,
    "drop": 6719,
    "arty": 6720,
    "ona": 6721,
    " capital": 6722,
    " hear": 6723,
    " exists": 6724,
    "\tlog": 6725,
    "emo": 6726,
    "Run": 6727,
    "oi": 6728,
    " parser": 6729,
    " Method": 6730,
    " education": 6731,
    "[k": 6732,
    " library": 6733,
    ">\";\n": 6734,
    "_UN": 6735,
    "\tstd": 6736,
    "oded": 6737,
    " calls": 6738,
    "here": 6739,
    "Rel": 6740,
    " brand": 6741,
    "background": 6742,
    "ga": 6743,
    "_address": 6744,
    "_params": 6745,
    "Category": 6746,
    " India": 6747,
    "_event": 6748,
    " ing": 6749,
    "Render": 6750,
    ".cl": 6751,
    "umpy": 6752,
    " pet": 6753,
    "FC": 6754,
    " Ant": 6755,
    "Ext": 6756,
    " charge": 6757,
    "ened": 6758,
    "grad": 6759,
    "EO": 6760,
    " depend": 6761,
    " .\n\n": 6762,
    "frame": 6763,
    " df": 6764,
    " huge": 6765,
    " PART": 6766,
    "eds": 6767,
    ";;": 6768,
    " AM": 6769,
    " basic": 6770,
    " Let": 6771,
    "lich": 6772,
    " arm": 6773,
    " star": 6774,
    " federal": 6775,
    "Work": 6776,
    " carry": 6777,
    " Israel": 6778,
    "(obj": 6779,
    "={{": 6780,
    " saved": 6781,
    " syn": 6782,
    " constant": 6783,
    "VENT": 6784,
    " positive": 6785,
    " conduct": 6786,
    " skin": 6787,
    " earlier": 6788,
    " layout": 6789,
    " IP": 6790,
    "OUR": 6791,
    " tim": 6792,
    "stylesheet": 6793,
    "_cl": 6794,
    " Card": 6795,
    "++){\n": 6796,
    " temper": 6797,
    " David": 6798,
    "\ttry": 6799,
    ".dart": 6800,
    " wants": 6801,
    " picture": 6802,
    " videos": 6803,
    " Comm": 6804,
    "isions": 6805,
    "_MAX": 6806,
    "Mapping": 6807,
    "-content": 6808,
    " Ear": 6809,
    "-de": 6810,
    " prem": 6811,
    "bruary": 6812,
    " components": 6813,
    " throughout": 6814,
    " pull": 6815,
    " pages": 6816,
    "ente": 6817,
    "respond": 6818,
    " gas": 6819,
    "criptor": 6820,
    " edge": 6821,
    " bound": 6822,
    "ACT": 6823,
    "******": 6824,
    " creating": 6825,
    " CH": 6826,
    " nullptr": 6827,
    "Br": 6828,
    "+'": 6829,
    ".co": 6830,
    ">::": 6831,
    " learning": 6832,
    ".Length": 6833,
    "_SH": 6834,
    " patients": 6835,
    "AIN": 6836,
    " kids": 6837,
    " comfort": 6838,
    " shown": 6839,
    "ugins": 6840,
    " Back": 6841,
    "ella": 6842,
    "_CL": 6843,
    " lat": 6844,
    " dispatch": 6845,
    " classes": 6846,
    ".at": 6847,
    ".begin": 6848,
    " successful": 6849,
    "ban": 6850,
    " obtain": 6851,
    " Sl": 6852,
    " lack": 6853,
    "iterator": 6854,
    "Thread": 6855,
    "(size": 6856,
    " none": 6857,
    ".has": 6858,
    "_X": 6859,
    "sort": 6860,
    "nap": 6861,
    "pet": 6862,
    "bin": 6863,
    " Canada": 6864,
    "They": 6865,
    " dans": 6866,
    " Mat": 6867,
    "<td": 6868,
    " hair": 6869,
    " '',\n": 6870,
    " cu": 6871,
    " laws": 6872,
    "leted": 6873,
    "ped": 6874,
    " pow": 6875,
    " knew": 6876,
    "_COM": 6877,
    "_,": 6878,
    " Mag": 6879,
    "idents": 6880,
    "(req": 6881,
    " ),": 6882,
    "-center": 6883,
    " wide": 6884,
    " Author": 6885,
    "stants": 6886,
    " jobs": 6887,
    " math": 6888,
    "etimes": 6889,
    "Boolean": 6890,
    " scope": 6891,
    "_is": 6892,
    " meas": 6893,
    " keys": 6894,
    "elay": 6895,
    " exactly": 6896,
    "'=>'": 6897,
    " Paul": 6898,
    "mas": 6899,
    "\tprint": 6900,
    "(len": 6901,
    "fd": 6902,
    " );": 6903,
    ".Event": 6904,
    "qli": 6905,
    "irit": 6906,
    "ields": 6907,
    "oman": 6908,
    " Top": 6909,
    " vote": 6910,
    " mask": 6911,
    " theme": 6912,
    "-\n": 6913,
    " props": 6914,
    " fine": 6915,
    " writer": 6916,
    "_offset": 6917,
    "car": 6918,
    " altern": 6919,
    " copyright": 6920,
    " destroy": 6921,
    "pper": 6922,
    " generate": 6923,
    "pped": 6924,
    "’d": 6925,
    "      \n": 6926,
    "make": 6927,
    " Show": 6928,
    " browser": 6929,
    " favorite": 6930,
    " career": 6931,
    " happened": 6932,
    "(char": 6933,
    " recommend": 6934,
    " liter": 6935,
    ".filter": 6936,
    "grade": 6937,
    " £": 6938,
    "Phone": 6939,
    "oms": 6940,
    " named": 6941,
    "-label": 6942,
    "ipo": 6943,
    " Other": 6944,
    " panel": 6945,
    " rock": 6946,
    "Scale": 6947,
    "\tassert": 6948,
    "д": 6949,
    " trust": 6950,
    "front": 6951,
    " demon": 6952,
    "Ar": 6953,
    "Net": 6954,
    " economic": 6955,
    "footer": 6956,
    " race": 6957,
    "(node": 6958,
    " Option": 6959,
    "split": 6960,
    " physical": 6961,
    "ifest": 6962,
    " removed": 6963,
    ".http": 6964,
    ")),\n": 6965,
    " looked": 6966,
    "';": 6967,
    "ding": 6968,
    "gest": 6969,
    "aturday": 6970,
    "/licenses": 6971,
    "Price": 6972,
    " dro": 6973,
    " towards": 6974,
    " uns": 6975,
    " CL": 6976,
    "\tstatic": 6977,
    " rows": 6978,
    " define": 6979,
    ".replace": 6980,
    " father": 6981,
    " Design": 6982,
    "assign": 6983,
    "mut": 6984,
    "Device": 6985,
    "Did": 6986,
    "'))\n": 6987,
    "ometry": 6988,
    "ayload": 6989,
    " histor": 6990,
    " Param": 6991,
    " Boolean": 6992,
    " nature": 6993,
    " js": 6994,
    " nation": 6995,
    "ih": 6996,
    " discover": 6997,
    "sem": 6998,
    "Handle": 6999,
    "\tr": 7000,
    " Techn": 7001,
    " wall": 7002,
    "{$": 7003,
    "@property": 7004,
    " \"../": 7005,
    " exam": 7006,
    ".draw": 7007,
    "opping": 7008,
    " nearly": 7009,
    " cool": 7010,
    " independ": 7011,
    "RES": 7012,
    " handler": 7013,
    " Monday": 7014,
    " sun": 7015,
    "Styles": 7016,
    "ously": 7017,
    " \t": 7018,
    "vest": 7019,
    "Display": 7020,
    "(y": 7021,
    "atically": 7022,
    " predict": 7023,
    "ying": 7024,
    " sometimes": 7025,
    "\"]\n": 7026,
    " drink": 7027,
    " bul": 7028,
    "ifications": 7029,
    ".insert": 7030,
    ".reg": 7031,
    " tests": 7032,
    "Alignment": 7033,
    " alleg": 7034,
    " attribute": 7035,
    " Note": 7036,
    " myself": 7037,
    "arts": 7038,
    "Now": 7039,
    " interesting": 7040,
    "lients": 7041,
    " population": 7042,
    " California": 7043,
    "\"I": 7044,
    "å¹": 7045,
    " greater": 7046,
    "uesday": 7047,
    " thous": 7048,
    " costs": 7049,
    " launch": 7050,
    "\\Http": 7051,
    "ker": 7052,
    "band": 7053,
    " Play": 7054,
    " band": 7055,
    ".shape": 7056,
    "esome": 7057,
    "article": 7058,
    ".rf": 7059,
    " wer": 7060,
    "ás": 7061,
    "embers": 7062,
    "usr": 7063,
    "BA": 7064,
    "ican": 7065,
    "ett": 7066,
    "validate": 7067,
    "ulti": 7068,
    " immediately": 7069,
    "zer": 7070,
    " figure": 7071,
    "oes": 7072,
    "eller": 7073,
    "ircle": 7074,
    " Sign": 7075,
    ".db": 7076,
    " rank": 7077,
    "Bytes": 7078,
    " projects": 7079,
    "_rec": 7080,
    "ULAR": 7081,
    "API": 7082,
    " Line": 7083,
    "Port": 7084,
    " poll": 7085,
    " giving": 7086,
    "idence": 7087,
    "--\n": 7088,
    " plot": 7089,
    "icial": 7090,
    " warrant": 7091,
    "ITION": 7092,
    " Double": 7093,
    " billion": 7094,
    "gorithm": 7095,
    " equipment": 7096,
    "DATE": 7097,
    " @\"": 7098,
    "EE": 7099,
    " ple": 7100,
    "iation": 7101,
    " headers": 7102,
    " proced": 7103,
    ".ComponentModel": 7104,
    " Obama": 7105,
    " pa": 7106,
    " Best": 7107,
    "imately": 7108,
    ".getString": 7109,
    ".\\": 7110,
    "mploy": 7111,
    " raw": 7112,
    "_block": 7113,
    "undred": 7114,
    "\"},\n": 7115,
    ".GroupLayout": 7116,
    " brought": 7117,
    "NSString": 7118,
    "throw": 7119,
    "created": 7120,
    ".New": 7121,
    "_view": 7122,
    "CP": 7123,
    "eps": 7124,
    "Op": 7125,
    " gratis": 7126,
    " '\"": 7127,
    " interview": 7128,
    "\"\"\"\n": 7129,
    " partial": 7130,
    " aria": 7131,
    "bing": 7132,
    "Author": 7133,
    "Book": 7134,
    " Pat": 7135,
    "uman": 7136,
    "Users": 7137,
    "plus": 7138,
    " Direct": 7139,
    "venue": 7140,
    "alpha": 7141,
    "UCCESS": 7142,
    " Call": 7143,
    " );\r\n": 7144,
    "imated": 7145,
    " remain": 7146,
    " anti": 7147,
    " London": 7148,
    " safety": 7149,
    "POSE": 7150,
    "oles": 7151,
    "controller": 7152,
    "Byte": 7153,
    " Court": 7154,
    " Phil": 7155,
    " Associ": 7156,
    "ena": 7157,
    "å": 7158,
    "_STR": 7159,
    "coin": 7160,
    "reshold": 7161,
    " batch": 7162,
    "_Click": 7163,
    "entication": 7164,
    ">';\n": 7165,
    "enty": 7166,
    " beginning": 7167,
    " zero": 7168,
    " Convert": 7169,
    " terr": 7170,
    " paid": 7171,
    " increased": 7172,
    "catch": 7173,
    "-size": 7174,
    "activity": 7175,
    "equals": 7176,
    " queue": 7177,
    " \"'": 7178,
    " International": 7179,
    " für": 7180,
    "ursday": 7181,
    " scient": 7182,
    "allow": 7183,
    "axis": 7184,
    " appropri": 7185,
    "edge": 7186,
    " idx": 7187,
    "Success": 7188,
    "entifier": 7189,
    ":\\": 7190,
    "xis": 7191,
    " maximum": 7192,
    "arks": 7193,
    " birth": 7194,
    "(index": 7195,
    " maybe": 7196,
    ".py": 7197,
    "files": 7198,
    " limited": 7199,
    "_check": 7200,
    "look": 7201,
    "plies": 7202,
    " movement": 7203,
    "'].": 7204,
    " broad": 7205,
    " BE": 7206,
    " UnityEngine": 7207,
    ".cpp": 7208,
    " Every": 7209,
    "Admin": 7210,
    " fans": 7211,
    "pared": 7212,
    "\n    \n": 7213,
    " foreign": 7214,
    " pan": 7215,
    " tour": 7216,
    " Order": 7217,
    " moving": 7218,
    " auf": 7219,
    "Call": 7220,
    "cb": 7221,
    "ş": 7222,
    "ventory": 7223,
    " Sql": 7224,
    " fully": 7225,
    "ClickListener": 7226,
    "WORD": 7227,
    " announced": 7228,
    ")\r\n\r\n": 7229,
    " agreed": 7230,
    "rie": 7231,
    " earn": 7232,
    "_link": 7233,
    ".array": 7234,
    "(text": 7235,
    " materials": 7236,
    ",p": 7237,
    "ffff": 7238,
    "vg": 7239,
    " ©": 7240,
    " unless": 7241,
    "ajax": 7242,
    "LOG": 7243,
    " sexual": 7244,
    " \\\"": 7245,
    "-time": 7246,
    " coach": 7247,
    " supported": 7248,
    " photos": 7249,
    "iform": 7250,
    ".Create": 7251,
    ")]": 7252,
    "rier": 7253,
    " dialog": 7254,
    "aver": 7255,
    "ige": 7256,
    ")+": 7257,
    "_idx": 7258,
    ":[": 7259,
    "_min": 7260,
    " Cong": 7261,
    " pressure": 7262,
    " teams": 7263,
    "Sign": 7264,
    "begin": 7265,
    "rian": 7266,
    "NESS": 7267,
    "LS": 7268,
    " improve": 7269,
    " Sunday": 7270,
    " definition": 7271,
    "iger": 7272,
    "rollers": 7273,
    " thinking": 7274,
    "Template": 7275,
    "-F": 7276,
    " emerg": 7277,
    "plates": 7278,
    " USA": 7279,
    ".setState": 7280,
    " Also": 7281,
    "rev": 7282,
    " enable": 7283,
    " CO": 7284,
    "PECT": 7285,
    " concept": 7286,
    ")-": 7287,
    " •": 7288,
    " sets": 7289,
    " meaning": 7290,
    "emon": 7291,
    " Cons": 7292,
    "cmp": 7293,
    "eder": 7294,
    "anned": 7295,
    "icensed": 7296,
    " Super": 7297,
    " daily": 7298,
    " multi": 7299,
    "_u": 7300,
    " challeng": 7301,
    "_mode": 7302,
    " Promise": 7303,
    " strict": 7304,
    "jo": 7305,
    "inton": 7306,
    "(list": 7307,
    "Only": 7308,
    ">{": 7309,
    " vehicle": 7310,
    "í": 7311,
    " Player": 7312,
    " Del": 7313,
    " pool": 7314,
    ".url": 7315,
    "nesday": 7316,
    "();\r\n\r\n": 7317,
    " \");\n": 7318,
    "Local": 7319,
    ".\");\n": 7320,
    " organization": 7321,
    "render": 7322,
    " Application": 7323,
    " summer": 7324,
    "expected": 7325,
    "NA": 7326,
    " rap": 7327,
    "_obj": 7328,
    " surface": 7329,
    " PUR": 7330,
    " },\n\n": 7331,
    " variables": 7332,
    "(message": 7333,
    " opin": 7334,
    ".back": 7335,
    "ан": 7336,
    " workers": 7337,
    "vm": 7338,
    "Co": 7339,
    "ughter": 7340,
    " master": 7341,
    " \"\",": 7342,
    " stories": 7343,
    ".User": 7344,
    " celebr": 7345,
    "inese": 7346,
    "BS": 7347,
    " Command": 7348,
    "ashboard": 7349,
    " og": 7350,
    "kg": 7351,
    ".image": 7352,
    ".style": 7353,
    " steps": 7354,
    " Ben": 7355,
    "(args": 7356,
    " Person": 7357,
    ",y": 7358,
    " officials": 7359,
    "|\n": 7360,
    " skills": 7361,
    "vc": 7362,
    " builder": 7363,
    " gar": 7364,
    "Account": 7365,
    " Auth": 7366,
    "ç": 7367,
    "'])\n": 7368,
    " AT": 7369,
    "nn": 7370,
    ".Int": 7371,
    "SSERT": 7372,
    " effective": 7373,
    "LETE": 7374,
    " tools": 7375,
    "ARD": 7376,
    " digital": 7377,
    "Double": 7378,
    " Find": 7379,
    "RC": 7380,
    " inline": 7381,
    "/r": 7382,
    "ARAM": 7383,
    "ASK": 7384,
    " intent": 7385,
    "aight": 7386,
    "_addr": 7387,
    " requests": 7388,
    ".first": 7389,
    " debug": 7390,
    " spent": 7391,
    "()));\n": 7392,
    "ś": 7393,
    " princip": 7394,
    "Logger": 7395,
    "cludes": 7396,
    ".use": 7397,
    " surv": 7398,
    "media": 7399,
    " February": 7400,
    " Mac": 7401,
    " missing": 7402,
    " wife": 7403,
    " talking": 7404,
    " Make": 7405,
    " cart": 7406,
    " located": 7407,
    "Enc": 7408,
    "-a": 7409,
    "chron": 7410,
    " cards": 7411,
    " guy": 7412,
    " pers": 7413,
    " Yes": 7414,
    "atever": 7415,
    " Ang": 7416,
    "olar": 7417,
    " Even": 7418,
    " accur": 7419,
    " Power": 7420,
    " Gold": 7421,
    "clear": 7422,
    "Process": 7423,
    " records": 7424,
    " killed": 7425,
    ".clear": 7426,
    " WARRANTIES": 7427,
    " purpose": 7428,
    "panel": 7429,
    "JECT": 7430,
    "ía": 7431,
    " exerc": 7432,
    "WS": 7433,
    "/L": 7434,
    ".exports": 7435,
    " ___": 7436,
    " sin": 7437,
    "Servlet": 7438,
    " dé": 7439,
    ".delete": 7440,
    "roke": 7441,
    "Sl": 7442,
    "ugh": 7443,
    "ears": 7444,
    " pointer": 7445,
    " hop": 7446,
    "allery": 7447,
    " obs": 7448,
    "covery": 7449,
    "\tchar": 7450,
    "\t\t\t\t\t\t\t\t\t\t": 7451,
    "\tdef": 7452,
    "ocity": 7453,
    "itchen": 7454,
    "ulations": 7455,
    " FIT": 7456,
    " ).": 7457,
    "straints": 7458,
    "vention": 7459,
    " requires": 7460,
    " Oper": 7461,
    "ME": 7462,
    "OUNT": 7463,
    "allet": 7464,
    " norm": 7465,
    "IRE": 7466,
    "exas": 7467,
    " programs": 7468,
    " weak": 7469,
    "'.$": 7470,
    "uing": 7471,
    "\t       ": 7472,
    " mil": 7473,
    " firm": 7474,
    "initely": 7475,
    "_VALUE": 7476,
    "apse": 7477,
    "atisf": 7478,
    " demand": 7479,
    "_mod": 7480,
    " described": 7481,
    " places": 7482,
    "VID": 7483,
    " alone": 7484,
    " export": 7485,
    " vec": 7486,
    " Max": 7487,
    " activities": 7488,
    "ictures": 7489,
    "gener": 7490,
    " ma": 7491,
    "¬": 7492,
    " expression": 7493,
    "Callback": 7494,
    "_content": 7495,
    " Most": 7496,
    " testing": 7497,
    "EC": 7498,
    "CHANT": 7499,
    " adjust": 7500,
    ".Threading": 7501,
    "(ctx": 7502,
    " agree": 7503,
    "ighest": 7504,
    " ui": 7505,
    " Law": 7506,
    ".Y": 7507,
    "><?": 7508,
    " pod": 7509,
    "-lg": 7510,
    "”\n\n": 7511,
    " describe": 7512,
    " European": 7513,
    "-sh": 7514,
    " PURPOSE": 7515,
    "ORY": 7516,
    " convers": 7517,
    " Illuminate": 7518,
    " Av": 7519,
    "(ch": 7520,
    "?\"": 7521,
    "chen": 7522,
    "ima": 7523,
    "Document": 7524,
    " operations": 7525,
    "win": 7526,
    "\tfunction": 7527,
    ".Image": 7528,
    " scen": 7529,
    "/h": 7530,
    " SC": 7531,
    " explo": 7532,
    ":%": 7533,
    "/**\r\n": 7534,
    "NAME": 7535,
    "æ": 7536,
    "(var": 7537,
    " director": 7538,
    "ONG": 7539,
    " yield": 7540,
    " feet": 7541,
    " Search": 7542,
    " Il": 7543,
    " restaur": 7544,
    "duc": 7545,
    " integer": 7546,
    " '';\n": 7547,
    " highly": 7548,
    "checked": 7549,
    " PARTIC": 7550,
    "ERCHANT": 7551,
    "）": 7552,
    " optim": 7553,
    "Queue": 7554,
    " LI": 7555,
    "itation": 7556,
    " transport": 7557,
    "ission": 7558,
    "fill": 7559,
    "usion": 7560,
    "                              ": 7561,
    "\tbool": 7562,
    "-th": 7563,
    "upt": 7564,
    " essential": 7565,
    "anted": 7566,
    " benefits": 7567,
    "\tS": 7568,
    "';\r\n": 7569,
    "iki": 7570,
    " girls": 7571,
    "iced": 7572,
    "buffer": 7573,
    "]+": 7574,
    " socket": 7575,
    " prices": 7576,
    " Fre": 7577,
    " sat": 7578,
    " wood": 7579,
    "MenuItem": 7580,
    "ARG": 7581,
    " Admin": 7582,
    "OWN": 7583,
    "dk": 7584,
    " reset": 7585,
    " forms": 7586,
    " и": 7587,
    "æ": 7588,
    " Tuesday": 7589,
    " Initialized": 7590,
    "_train": 7591,
    "orary": 7592,
    "ategor": 7593,
    " dt": 7594,
    "Total": 7595,
    "construct": 7596,
    "ilies": 7597,
    " guys": 7598,
    "ер": 7599,
    " instruction": 7600,
    "yled": 7601,
    " internet": 7602,
    "etadata": 7603,
    "ady": 7604,
    "faces": 7605,
    "jection": 7606,
    " Jack": 7607,
    " rect": 7608,
    "[-": 7609,
    " Leg": 7610,
    " devices": 7611,
    "OC": 7612,
    " *\r\n": 7613,
    "oration": 7614,
    "ertain": 7615,
    " guard": 7616,
    "ostream": 7617,
    " enum": 7618,
    ".layout": 7619,
    " \";\n": 7620,
    "voke": 7621,
    " Ok": 7622,
    "Home": 7623,
    "(tr": 7624,
    "ETH": 7625,
    " delay": 7626,
    " purchase": 7627,
    "dc": 7628,
    " aren": 7629,
    "_once": 7630,
    "\t\t\t\t\n": 7631,
    "ror": 7632,
    "draw": 7633,
    ".run": 7634,
    "(model": 7635,
    "Timeout": 7636,
    "lik": 7637,
    " Arg": 7638,
    ".en": 7639,
    " fish": 7640,
    "cpy": 7641,
    "_fe": 7642,
    "ERCHANTABILITY": 7643,
    "(X": 7644,
    "_output": 7645,
    "??": 7646,
    " jo": 7647,
    "andard": 7648,
    " doll": 7649,
    "errors": 7650,
    "_base": 7651,
    " PARTICULAR": 7652,
    " leader": 7653,
    " compar": 7654,
    " doub": 7655,
    " Vis": 7656,
    "StackTrace": 7657,
    "-C": 7658,
    " Stud": 7659,
    "stitute": 7660,
    "More": 7661,
    " Description": 7662,
    "WARE": 7663,
    "ads": 7664,
    " к": 7665,
    "bind": 7666,
    "=self": 7667,
    "employ": 7668,
    "[n": 7669,
    ".all": 7670,
    "-B": 7671,
    "&&": 7672,
    "alm": 7673,
    " culture": 7674,
    "house": 7675,
    " suffer": 7676,
    " '%": 7677,
    " straight": 7678,
    " Star": 7679,
    "udo": 7680,
    " ded": 7681,
    " COM": 7682,
    " confirm": 7683,
    " Good": 7684,
    ".sc": 7685,
    "________________": 7686,
    "DR": 7687,
    "Configuration": 7688,
    "DateTime": 7689,
    " advert": 7690,
    " couldn": 7691,
    "async": 7692,
    "stack": 7693,
    "')\r\n": 7694,
    "Kit": 7695,
    " hous": 7696,
    " mechan": 7697,
    "rate": 7698,
    " audio": 7699,
    "\tcout": 7700,
    "cores": 7701,
    " spot": 7702,
    " increasing": 7703,
    " ##": 7704,
    ")))": 7705,
    "points": 7706,
    " compared": 7707,
    "lig": 7708,
    " behavior": 7709,
    " BY": 7710,
    " Att": 7711,
    "craft": 7712,
    "headers": 7713,
    "ete": 7714,
    "endregion": 7715,
    " detail": 7716,
    "ULE": 7717,
    " Common": 7718,
    "\tprotected": 7719,
    "ston": 7720,
    " FITNESS": 7721,
    " fresh": 7722,
    "\">\n\n": 7723,
    ".example": 7724,
    "berg": 7725,
    " moved": 7726,
    "\te": 7727,
    " Saturday": 7728,
    " payload": 7729,
    "ć": 7730,
    "):\n\n": 7731,
    " bey": 7732,
    "urer": 7733,
    "<script": 7734,
    " symbol": 7735,
    " assum": 7736,
    " pul": 7737,
    "Effect": 7738,
    " hundred": 7739,
    "Tool": 7740,
    "aked": 7741,
    "connection": 7742,
    " voice": 7743,
    " pd": 7744,
    " transaction": 7745,
    " links": 7746,
    "Err": 7747,
    " Indian": 7748,
    "TC": 7749,
    "atalog": 7750,
    "ni": 7751,
    "sign": 7752,
    "<<\"": 7753,
    "ji": 7754,
    "ya": 7755,
    " demonstr": 7756,
    "ulated": 7757,
    ".St": 7758,
    " instit": 7759,
    " boost": 7760,
    " cells": 7761,
    "olic": 7762,
    ".Pro": 7763,
    ":</": 7764,
    "EventListener": 7765,
    "ifying": 7766,
    " Di": 7767,
    "orrow": 7768,
    ".execute": 7769,
    " college": 7770,
    "Your": 7771,
    " largest": 7772,
    ".dis": 7773,
    " qui": 7774,
    " individuals": 7775,
    "_buffer": 7776,
    " ng": 7777,
    "SA": 7778,
    " Control": 7779,
    " sing": 7780,
    " suit": 7781,
    "    \t": 7782,
    "SG": 7783,
    " jump": 7784,
    " smart": 7785,
    "oma": 7786,
    " Exp": 7787,
    " '-": 7788,
    " assist": 7789,
    " successfully": 7790,
    "sys": 7791,
    " Cre": 7792,
    "_ref": 7793,
    " Thursday": 7794,
    " bur": 7795,
    " д": 7796,
    " beyond": 7797,
    " nodes": 7798,
    "Details": 7799,
    "inct": 7800,
    " James": 7801,
    " affect": 7802,
    "exception": 7803,
    " typeof": 7804,
    "(\r\n": 7805,
    "-se": 7806,
    " fetch": 7807,
    "`,": 7808,
    " crusher": 7809,
    "}.": 7810,
    " BO": 7811,
    "Show": 7812,
    " rates": 7813,
    " bon": 7814,
    "-icon": 7815,
    " Media": 7816,
    "RESS": 7817,
    " Valid": 7818,
    "ол": 7819,
    " fuck": 7820,
    "acks": 7821,
    " studies": 7822,
    "Me": 7823,
    " owners": 7824,
    "}else": 7825,
    " growing": 7826,
    "Variable": 7827,
    " Bel": 7828,
    ".random": 7829,
    "vement": 7830,
    "onym": 7831,
    "(F": 7832,
    " FALSE": 7833,
    " torch": 7834,
    "(row": 7835,
    "igo": 7836,
    "structure": 7837,
    " certainly": 7838,
    "Dep": 7839,
    " Green": 7840,
    "question": 7841,
    " adding": 7842,
    " Develop": 7843,
    "_def": 7844,
    " mach": 7845,
    "=%": 7846,
    "\t\t ": 7847,
    "conds": 7848,
    "Project": 7849,
    " reject": 7850,
    " Î": 59108,
    " poor": 7852,
    " aware": 7853,
    " Build": 7854,
    " British": 7855,
    " NE": 7856,
    " numer": 7857,
    "rees": 7858,
    "claim": 7859,
    " mock": 7860,
    " om": 7861,
    " scre": 7862,
    "OLD": 7863,
    ".pl": 7864,
    "eler": 7865,
    " correspond": 7866,
    "_HE": 7867,
    " binary": 7868,
    "_order": 7869,
    " SQL": 7870,
    " advant": 7871,
    " prev": 7872,
    ".[": 7873,
    ".assertEqual": 7874,
    "plier": 7875,
    "arp": 7876,
    " closed": 7877,
    " encour": 7878,
    " QString": 7879,
    "aud": 7880,
    " developed": 7881,
    " permission": 7882,
    ".debug": 7883,
    "operator": 7884,
    " '\n": 7885,
    " sym": 7886,
    "atively": 7887,
    "ée": 7888,
    "-color": 7889,
    " GET": 7890,
    "ky": 7891,
    " although": 7892,
    "_request": 7893,
    "_element": 7894,
    "................": 7895,
    "_DATA": 7896,
    " amazing": 7897,
    " sb": 7898,
    " Default": 7899,
    "Events": 7900,
    " failure": 7901,
    "acle": 7902,
    "Properties": 7903,
    " dream": 7904,
    " distr": 7905,
    " au": 7906,
    " generated": 7907,
    "æ": 7908,
    " Team": 7909,
    "USE": 7910,
    " income": 7911,
    " eye": 7912,
    "_not": 7913,
    "\"],": 7914,
    "_form": 7915,
    "Support": 7916,
    "orders": 7917,
    ".Print": 7918,
    "ville": 7919,
    " Wednesday": 7920,
    "olver": 7921,
    " oppos": 7922,
    "isation": 7923,
    "ola": 7924,
    "Close": 7925,
    "<p": 7926,
    "_width": 7927,
    "Invalid": 7928,
    "xb": 7929,
    " strugg": 7930,
    "_action": 7931,
    " txt": 7932,
    " Path": 7933,
    "alar": 7934,
    " MERCHANTABILITY": 7935,
    "service": 7936,
    " Michael": 7937,
    "ableView": 7938,
    "Debug": 7939,
    "okes": 7940,
    "She": 7941,
    " guess": 7942,
    " Java": 7943,
    "_PATH": 7944,
    " particularly": 7945,
    " II": 7946,
    " domain": 7947,
    "年": 7948,
    " reduce": 7949,
    "-left": 7950,
    "real": 7951,
    " appears": 7952,
    " como": 7953,
    " Unit": 7954,
    " Govern": 7955,
    "ali": 7956,
    "allel": 7957,
    " Jew": 7958,
    "_I": 7959,
    " cos": 7960,
    ".color": 7961,
    " Global": 7962,
    " tele": 7963,
    "ben": 7964,
    "_trans": 7965,
    " reasons": 7966,
    " emb": 7967,
    "ensity": 7968,
    "lines": 7969,
    "omin": 7970,
    "Screen": 7971,
    "ат": 7972,
    "pects": 7973,
    "clip": 7974,
    "foo": 7975,
    "rent": 7976,
    " af": 7977,
    " danger": 7978,
    "iling": 7979,
    "Names": 7980,
    "Our": 7981,
    " distribution": 7982,
    "While": 7983,
    "SL": 7984,
    "Write": 7985,
    " goto": 7986,
    " colors": 7987,
    " powerful": 7988,
    "kin": 7989,
    " depth": 7990,
    "ercial": 7991,
    " Congress": 7992,
    " Market": 7993,
    "Db": 7994,
    "under": 7995,
    " Last": 7996,
    "greg": 7998,
    " posts": 7999,
    "_URL": 8000,
    "otos": 8001,
    "Don": 8002,
    " micro": 8003,
    " arrest": 8004,
    "п": 8005,
    " (@": 8006,
    " Hot": 8007,
    " Index": 8008,
    ";&": 8009,
    "#!": 8010,
    " Nor": 8011,
    " Cap": 8012,
    "-(": 8013,
    " interested": 8014,
    "pear": 8015,
    " rent": 8016,
    " album": 8017,
    "olicy": 8018,
    ".lang": 8019,
    ".trans": 8020,
    ".format": 8021,
    " {\r\n\r\n": 8022,
    "phere": 8023,
    " axis": 8024,
    " Business": 8025,
    "ersistence": 8026,
    "urr": 8027,
    " minimum": 8028,
    "endor": 8029,
    " SD": 8030,
    " Internet": 8031,
    "å¤": 8032,
    "Exp": 8033,
    "iverse": 8034,
    "MM": 8035,
    " obvious": 8036,
    " basis": 8037,
    " science": 8038,
    " budget": 8039,
    "izations": 8040,
    "PA": 8041,
    " flags": 8042,
    "pret": 8043,
    "LOCK": 8044,
    " variety": 8045,
    " truth": 8046,
    "dt": 8047,
    " gone": 8048,
    " battle": 8049,
    "<std": 8050,
    " Sil": 8051,
    "rf": 8052,
    "uda": 8053,
    " erot": 8054,
    " Cam": 8055,
    " station": 8056,
    " '</": 8057,
    "cheme": 8058,
    " Sun": 8059,
    " finished": 8060,
    " shop": 8061,
    " Kore": 8062,
    " eight": 8063,
    "_REG": 8064,
    "ND": 8065,
    ">,": 8066,
    "\"><?": 8067,
    "(num": 8068,
    "\tinline": 8069,
    "Transaction": 8070,
    ".On": 8071,
    " mail": 8072,
    "rey": 8073,
    "results": 8074,
    " nav": 8075,
    "IMIT": 8076,
    "_ids": 8077,
    "Make": 8078,
    "å": 8079,
    "Modal": 8080,
    " LOG": 8081,
    " Sur": 8082,
    " instanceof": 8083,
    " overall": 8084,
    " Information": 8085,
    " construction": 8086,
    "_FILE": 8087,
    "but": 8088,
    " medic": 8089,
    " duration": 8090,
    "itness": 8091,
    "agent": 8092,
    "AV": 8093,
    " seven": 8094,
    "olf": 8095,
    " }}\n": 8096,
    "\"],\n": 8097,
    " calling": 8098,
    " ans": 8099,
    "throws": 8100,
    "orizontal": 8101,
    " useState": 8102,
    ".fl": 8103,
    " Status": 8104,
    " Online": 8105,
    "RR": 8106,
    " Rich": 8107,
    " Hill": 8108,
    " brain": 8109,
    " followed": 8110,
    "emic": 8111,
    " slight": 8112,
    " insurance": 8113,
    ".Array": 8114,
    " abstract": 8115,
    " Sum": 8116,
    "redirect": 8117,
    "owner": 8118,
    "(msg": 8119,
    " Clinton": 8120,
    "Non": 8121,
    "\tex": 8122,
    " volume": 8123,
    " EventArgs": 8124,
    "-L": 8125,
    " Dim": 8126,
    " Mart": 8127,
    " cursor": 8128,
    " implementation": 8129,
    "urred": 8130,
    " larger": 8131,
    ");\n\n\n": 8132,
    "'+": 8133,
    ".transform": 8134,
    " upload": 8135,
    "                                                       ": 8136,
    "Draw": 8137,
    "nel": 8138,
    "\tfloat": 8139,
    "qrt": 8140,
    " Network": 8141,
    " tit": 8142,
    "Axis": 8143,
    ".android": 8144,
    " completed": 8145,
    " mur": 8146,
    " columns": 8147,
    "xc": 8148,
    " supply": 8149,
    "iminal": 8150,
    " spr": 8151,
    "================================================================": 8152,
    " units": 8153,
    "(u": 8154,
    "mi": 8155,
    "replace": 8156,
    "[key": 8157,
    "à¹": 8158,
    "antic": 8159,
    " payment": 8160,
    ",B": 8161,
    " Apple": 8162,
    "gin": 8163,
    "Required": 8164,
    "#+": 8165,
    "lands": 8166,
    " squ": 8167,
    " factor": 8168,
    "dec": 8169,
    " strength": 8170,
    " boy": 8171,
    " balance": 8172,
    " sources": 8173,
    "screen": 8174,
    "-top": 8175,
    " Amazon": 8176,
    " hidden": 8177,
    "ет": 8178,
    "_client": 8179,
    " eat": 8180,
    ".display": 8181,
    " »": 8182,
    " trigger": 8183,
    "anager": 8184,
    " tro": 8185,
    " claims": 8186,
    "ford": 8187,
    " Company": 8188,
    " gift": 8189,
    ",:": 8190,
    "_app": 8191,
    "handle": 8192,
    " produce": 8193,
    "/lib": 8194,
    " -*": 8195,
    "\tset": 8196,
    "'];": 8197,
    "arc": 8198,
    "ander": 8199,
    " Engine": 8200,
    " attributes": 8201,
    "task": 8202,
    "<=": 8203,
    "(N": 8204,
    " warm": 8205,
    "which": 8206,
    " Fore": 8207,
    "agnost": 8208,
    "mys": 8209,
    " tal": 8210,
    " Sal": 8211,
    "gi": 8212,
    " Print": 8213,
    " TRUE": 8214,
    " о": 8215,
    ".UI": 8216,
    " flash": 8217,
    "roperty": 8218,
    ".location": 8219,
    " Mill": 8220,
    "bi": 8221,
    "contr": 8222,
    ".request": 8223,
    " Sam": 8224,
    " negative": 8225,
    "kit": 8226,
    " sett": 8227,
    ".printStackTrace": 8228,
    "abe": 8229,
    "\ti": 8230,
    " burn": 8231,
    " society": 8232,
    "Cache": 8233,
    " Security": 8234,
    ".models": 8235,
    " WARRANTY": 8236,
    "_up": 8237,
    "ceive": 8238,
    " clients": 8239,
    ".Tr": 8240,
    " providing": 8241,
    " rout": 8242,
    "material": 8243,
    " ||\n": 8244,
    " Ser": 8245,
    " Office": 8246,
    "FTWARE": 8247,
    " '$": 8248,
    " foc": 8249,
    " excell": 8250,
    " cat": 8251,
    "normal": 8252,
    " determine": 8253,
    "\tuint": 8254,
    "Pane": 8255,
    " employees": 8256,
    " Texas": 8257,
    " traff": 8258,
    " Report": 8259,
    "anta": 8260,
    " Box": 8261,
    " django": 8262,
    " partner": 8263,
    "EB": 8264,
    "LINE": 8265,
    " feeling": 8266,
    " civil": 8267,
    "(float": 8268,
    "Sql": 8269,
    " wouldn": 8270,
    ".init": 8271,
    ".left": 8272,
    "-v": 8273,
    "_level": 8274,
    "'}": 8275,
    "AF": 8276,
    " loading": 8277,
    " Only": 8278,
    " cookies": 8279,
    " Gl": 8280,
    "CO": 8281,
    " strategy": 8282,
    "('./": 8283,
    " ship": 8284,
    "poses": 8285,
    " signal": 8286,
    " alpha": 8287,
    ".pop": 8288,
    "Radius": 8289,
    " replace": 8290,
    "_DIR": 8291,
    "counter": 8292,
    "bservable": 8293,
    "ela": 8294,
    "Weight": 8295,
    "hash": 8296,
    "bose": 8297,
    "fx": 8298,
    " Email": 8299,
    " refer": 8300,
    "localhost": 8301,
    "_RO": 8302,
    "iques": 8303,
    "Step": 8304,
    " ahead": 8305,
    "(View": 8306,
    " Services": 8307,
    " Json": 8308,
    "essor": 8309,
    " pun": 8310,
    " appropriate": 8311,
    "akers": 8312,
    "osen": 8313,
    "posing": 8314,
    " agent": 8315,
    "fc": 8316,
    " transfer": 8317,
    " invalid": 8318,
    " Research": 8319,
    "Vertex": 8320,
    " gay": 8321,
    " journal": 8322,
    "[x": 8323,
    " \"\",\n": 8324,
    " Well": 8325,
    ".Tasks": 8326,
    "Spec": 8327,
    " ol": 8328,
    " spend": 8329,
    " Australia": 8330,
    "Match": 8331,
    ".junit": 8332,
    "                                     ": 8333,
    " MAX": 8334,
    "izable": 8335,
    "clusive": 8336,
    "_valid": 8337,
    " quarter": 8338,
    "yan": 8339,
    " Edit": 8340,
    "arden": 8341,
    "=new": 8342,
    " frag": 8343,
    "Bit": 8344,
    "zi": 8345,
    "aine": 8346,
    "udd": 8347,
    ".Object": 8348,
    "debug": 8349,
    " cash": 8350,
    "_IM": 8351,
    " een": 8352,
    " commercial": 8353,
    " Video": 8354,
    "loader": 8355,
    " fixed": 8356,
    " applications": 8357,
    " _,": 8358,
    " Russia": 8359,
    "itect": 8360,
    "_(": 8361,
    " Block": 8362,
    " san": 8363,
    " Tom": 8364,
    " perhaps": 8365,
    " sig": 8366,
    "levant": 8367,
    " corpor": 8368,
    "ataset": 8369,
    "ronic": 8370,
    "xe": 8371,
    " eth": 8372,
    "Some": 8373,
    "pop": 8374,
    "_OK": 8375,
    " tend": 8376,
    ".Res": 8377,
    "_and": 8378,
    " reviews": 8379,
    " wild": 8380,
    " degree": 8381,
    ".O": 8382,
    ".objects": 8383,
    "_args": 8384,
    "nil": 8385,
    " disabled": 8386,
    "Parent": 8387,
    " notes": 8388,
    " \"\"\n": 8389,
    "(state": 8390,
    "istrict": 8391,
    " logging": 8392,
    ".IO": 8393,
    " Mal": 8394,
    "DM": 8395,
    " xml": 8396,
    " Robert": 8397,
    "elen": 8398,
    "layout": 8399,
    "fol": 8400,
    "']))": 8401,
    ",b": 8402,
    " Jer": 8403,
    "filename": 8404,
    " fan": 8405,
    " Custom": 8406,
    "=\"\"": 8407,
    " Die": 8408,
    "Bundle": 8409,
    ".utils": 8410,
    " trip": 8411,
    "MB": 8412,
    " soft": 8413,
    "_MODE": 8414,
    " applicable": 8415,
    " upper": 8416,
    "ERVER": 8417,
    "_al": 8418,
    "_LOG": 8419,
    "Here": 8420,
    "wp": 8421,
    " Server": 8422,
    " Client": 8423,
    " chem": 8424,
    "Scroll": 8425,
    " highest": 8426,
    " Select": 8427,
    " \"@": 8428,
    " Why": 8429,
    "Sec": 8430,
    "heel": 8431,
    "Operation": 8432,
    " connected": 8433,
    "irmed": 8434,
    " citiz": 8435,
    " Che": 8436,
    " forces": 8437,
    " www": 8438,
    "Root": 8439,
    "ANCE": 8440,
    "Many": 8441,
    "icip": 8442,
    "rgan": 8443,
    " Tor": 8444,
    " Press": 8445,
    " Mor": 8446,
    "-line": 8447,
    "uled": 8448,
    ">\\": 8449,
    " thus": 8450,
    " Register": 8451,
    "hol": 8452,
    " Chinese": 8453,
    " posted": 8454,
    " magn": 8455,
    "abilities": 8456,
    " disease": 8457,
    " remains": 8458,
    " Prof": 8459,
    "-form": 8460,
    " cin": 8461,
    "organ": 8462,
    "icate": 8463,
    " stress": 8464,
    "]*": 8465,
    " ----------------------------------------------------------------": 8466,
    "_context": 8467,
    "orry": 8468,
    " died": 8469,
    "mat": 8470,
    " starts": 8471,
    ".Message": 8472,
    " runs": 8473,
    " guide": 8474,
    " warranty": 8475,
    "entials": 8476,
    "dict": 8477,
    " Size": 8478,
    "uler": 8479,
    " responsible": 8480,
    "_SET": 8481,
    " containing": 8482,
    " Price": 8483,
    "||": 8484,
    "FS": 8485,
    " emp": 8486,
    "_button": 8487,
    "(uint": 8488,
    " suff": 8489,
    "pth": 8490,
    " definitely": 8491,
    "pute": 8492,
    " marketing": 8493,
    " WH": 8494,
    " Sie": 8495,
    "+=": 8496,
    "OLOR": 8497,
    " consult": 8498,
    " signed": 8499,
    " sequence": 8500,
    "lee": 8501,
    " requirements": 8502,
    "hy": 8503,
    "Express": 8504,
    "MT": 8505,
    "sey": 8506,
    " ult": 8507,
    "å®": 8508,
    "elligence": 8509,
    " analy": 8510,
    " dress": 8511,
    "engine": 8512,
    " Great": 8513,
    " Android": 8514,
    " Alex": 8515,
    "mode": 8516,
    "Dictionary": 8517,
    ".Date": 8518,
    "ä½": 8519,
    "VICE": 8520,
    " families": 8521,
    " Russian": 8522,
    " Times": 8523,
    ".call": 8524,
    "$(": 8525,
    "Profile": 8526,
    " folder": 8527,
    "ches": 8528,
    " legis": 8529,
    "_row": 8530,
    "unes": 8531,
    "ل": 8532,
    " }).": 8533,
    "Assert": 8534,
    "agen": 8535,
    " Hand": 8536,
    "Iter": 8537,
    " biggest": 8538,
    "oreach": 8539,
    " polic": 8540,
    " permissions": 8541,
    " showed": 8542,
    " Element": 8543,
    " topic": 8544,
    "——": 8545,
    "road": 8546,
    " Bank": 8547,
    "record": 8548,
    " partners": 8549,
    " Ref": 8550,
    "essions": 8551,
    " assess": 8552,
    "UST": 8553,
    " Party": 8554,
    "produ": 8555,
    "LC": 8556,
    " ul": 8557,
    ".form": 8558,
    "hide": 8559,
    "copy": 8560,
    "UTF": 8561,
    " SOFTWARE": 8562,
    "\r\n\r\n\r\n": 8563,
    " Lin": 8564,
    "una": 8565,
    "ugar": 8566,
    " administration": 8567,
    " opening": 8568,
    " scan": 8569,
    " continued": 8570,
    "component": 8571,
    ".sp": 8572,
    " happens": 8573,
    "ummy": 8574,
    " PR": 8575,
    ".File": 8576,
    " Download": 8577,
    "Loading": 8578,
    "di": 8579,
    " waiting": 8580,
    "_ADD": 8581,
    "Tab": 8582,
    ".querySelector": 8583,
    " economy": 8584,
    " French": 8585,
    "txt": 8586,
    " fant": 8587,
    "_;\n": 8588,
    "Holder": 8589,
    "SH": 8590,
    " numpy": 8591,
    " street": 8592,
    " male": 8593,
    "\\Model": 8594,
    "anging": 8595,
    " Bill": 8596,
    " previously": 8597,
    "BI": 8598,
    " Secret": 8599,
    " mist": 8600,
    " Field": 8601,
    "ups": 8602,
    " Process": 8603,
    " kept": 8604,
    " OT": 8605,
    " traditional": 8606,
    ".i": 8607,
    "amin": 8608,
    " helps": 8609,
    "Any": 8610,
    "origin": 8611,
    "ilters": 8612,
    "ju": 8613,
    "desc": 8614,
    " Account": 8615,
    " )\r\n": 8616,
    "ktop": 8617,
    "olly": 8618,
    " fs": 8619,
    " ê": 19610,
    " ut": 8621,
    " central": 8622,
    "(test": 8623,
    ".An": 8624,
    " satisf": 8625,
    "GR": 8626,
    " Full": 8627,
    " heat": 8628,
    "iber": 8629,
    " onto": 8630,
    "mos": 8631,
    "Schema": 8632,
    " factory": 8633,
    "\".$": 8634,
    "aws": 8635,
    "Statement": 8636,
    "(target": 8637,
    "\tnew": 8638,
    ".be": 8639,
    " guest": 8640,
    " mal": 8641,
    "ARY": 8642,
    " reached": 8643,
    " mouse": 8644,
    " challenge": 8645,
    "\tdouble": 8646,
    " Tem": 8647,
    " terror": 8648,
    " extract": 8649,
    "_TO": 8650,
    " separate": 8651,
    " mir": 8652,
    "help": 8653,
    " capacity": 8654,
    " Property": 8655,
    "kan": 8656,
    "_create": 8657,
    " Light": 8658,
    ".parent": 8659,
    " understanding": 8660,
    " easier": 8661,
    " |=": 8662,
    " enh": 8663,
    " fat": 8664,
    " protest": 8665,
    "amm": 8666,
    "_AT": 8667,
    "-of": 8668,
    "ils": 8669,
    " Oh": 8670,
    " psych": 8671,
    " $.": 8672,
    "inds": 8673,
    " relative": 8674,
    "shop": 8675,
    "short": 8676,
    " Sand": 8677,
    "uestion": 8678,
    " fear": 8679,
    "/\n\n": 8680,
    ".context": 8681,
    " schools": 8682,
    " serve": 8683,
    "zone": 8684,
    "_db": 8685,
    " majority": 8686,
    "example": 8687,
    " lang": 8688,
    "\t  ": 8689,
    "Register": 8690,
    "endo": 8691,
    " processing": 8692,
    "_template": 8693,
    "-user": 8694,
    " eg": 8695,
    "COM": 8696,
    " Blue": 8697,
    "iro": 8698,
    " remote": 8699,
    " IT": 8700,
    "#!/": 8701,
    " redistrib": 8702,
    "raz": 8703,
    " Since": 8704,
    " Tur": 8705,
    "Background": 8706,
    "===": 8707,
    " reflect": 8708,
    " pros": 8709,
    "cmd": 8710,
    " whom": 8711,
    "Compat": 8712,
    " Are": 8713,
    "Identifier": 8714,
    " Thom": 8715,
    "_port": 8716,
    "gu": 8717,
    " monitor": 8718,
    "rm": 8719,
    " patient": 8720,
    "verter": 8721,
    " gain": 8722,
    "-ui": 8723,
    "Inst": 8724,
    " dies": 8725,
    "Area": 8726,
    "_filter": 8727,
    " grat": 8728,
    " reality": 8729,
    "ordinate": 8730,
    "olved": 8731,
    "Contact": 8732,
    " compliance": 8733,
    "_or": 8734,
    " Var": 8735,
    "dl": 8736,
    " append": 8737,
    "GER": 8738,
    "(max": 8739,
    ".render": 8740,
    " dynamic": 8741,
    "ordinates": 8742,
    "_options": 8743,
    "_column": 8744,
    " batter": 8745,
    "space": 8746,
    "La": 8747,
    " Source": 8748,
    "/bin": 8749,
    " dos": 8750,
    " Board": 8751,
    " Thread": 8752,
    " AL": 8753,
    "(config": 8754,
    " Mer": 8755,
    " miles": 8756,
    "_header": 8757,
    "ETHOD": 8758,
    "izz": 8759,
    " benefit": 8760,
    " integr": 8761,
    "(current": 8762,
    "ulo": 8763,
    ".default": 8764,
    " Div": 8765,
    " ton": 8766,
    "oth": 8767,
    "ervation": 8768,
    "edom": 8769,
    " baby": 8770,
    "ceived": 8771,
    ".top": 8772,
    "riority": 8773,
    " Local": 8774,
    "riage": 8775,
    " attacks": 8776,
    " hospital": 8777,
    " female": 8778,
    " Login": 8779,
    " Flor": 8780,
    " chain": 8781,
    "ashion": 8782,
    "Texture": 8783,
    "Save": 8784,
    " farm": 8785,
    ".contains": 8786,
    ".Test": 8787,
    " knows": 8788,
    " generally": 8789,
    "ipeline": 8790,
    " meant": 8791,
    "encia": 8792,
    " nicht": 8793,
    " contents": 8794,
    "PM": 8795,
    "chedule": 8796,
    "(line": 8797,
    "CG": 8798,
    "job": 8799,
    " Real": 8800,
    "uer": 8801,
    "firm": 8802,
    " Ø": 88943,
    "etro": 8804,
    "\"`\n": 8805,
    " speech": 8806,
    " thr": 8807,
    "foreach": 8808,
    " warn": 8809,
    "\tl": 8810,
    " heavy": 8811,
    "<li": 8812,
    "Ne": 8813,
    " investigation": 8814,
    "Math": 8815,
    "-title": 8816,
    " church": 8817,
    " despite": 8818,
    "chain": 8819,
    " whatever": 8820,
    "arian": 8821,
    "fn": 8822,
    " meta": 8823,
    "})\n\n": 8824,
    "UFF": 8825,
    " regarding": 8826,
    "_SUCCESS": 8827,
    "mes": 8828,
    " Intent": 8829,
    " resolve": 8830,
    "poss": 8831,
    "ira": 8832,
    "force": 8833,
    "oice": 8834,
    " pm": 8836,
    " updates": 8837,
    "Arr": 8838,
    " Ñ": 8839,
    "testing": 8840,
    " toward": 8841,
    "ntax": 8842,
    "ë": 8843,
    " listen": 8844,
    " goals": 8845,
    "InstanceState": 8846,
    "Dr": 8847,
    " rare": 8848,
    " trail": 8849,
    "Keys": 8850,
    "Cal": 8851,
    "Car": 8852,
    " People": 8853,
    "\tlocal": 8854,
    "classes": 8855,
    "Reference": 8856,
    ".forEach": 8857,
    "emb": 8858,
    "activ": 8859,
    " prim": 8860,
    "redict": 8861,
    " rad": 8862,
    "数": 8863,
    ".Back": 8864,
    " spread": 8865,
    " clock": 8866,
    " vir": 8867,
    "editor": 8868,
    " efforts": 8869,
    " branch": 8870,
    " indust": 8871,
    " motor": 8872,
    " amb": 8873,
    " datetime": 8874,
    " rencont": 8875,
    " Christian": 8876,
    " Americans": 8877,
    "full": 8878,
    " fmt": 8879,
    ".main": 8880,
    " caused": 8881,
    "_update": 8882,
    " Content": 8883,
    "ATCH": 8884,
    " bath": 8885,
    " Each": 8886,
    " radio": 8887,
    "achment": 8888,
    "uzz": 8889,
    "Submit": 8890,
    " restrict": 8891,
    "abin": 8892,
    " Load": 8893,
    " extension": 8894,
    " essay": 8895,
    " hat": 8896,
    "aviour": 8897,
    "toBe": 8898,
    "\":[": 8899,
    " offered": 8900,
    " vill": 8901,
    "(double": 8902,
    "日": 8903,
    "bc": 8904,
    "_free": 8905,
    " Miss": 8906,
    " Ber": 8907,
    " è": 11422,
    " Like": 8909,
    " helped": 8910,
    ".getName": 8911,
    "_AL": 8912,
    " spirit": 8913,
    " Apache": 8914,
    "ws": 8915,
    " therefore": 8916,
    "(params": 8917,
    "_img": 8918,
    " peace": 8919,
    " incor": 8920,
    " EXPECT": 8921,
    " minor": 8922,
    "ipes": 8923,
    "\tdata": 8924,
    "selector": 8925,
    "city": 8926,
    "trie": 8927,
    ".base": 8928,
    "_frame": 8929,
    " opened": 8930,
    "/json": 8931,
    "LY": 8932,
    "nu": 8933,
    ".De": 8934,
    "tf": 8935,
    "margin": 8936,
    ".Parse": 8937,
    " pi": 8938,
    " eq": 8939,
    "bd": 8940,
    "Fields": 8941,
    " Tree": 8942,
    " ban": 8943,
    "istan": 8944,
    "\n        \n": 8945,
    "\tgl": 8946,
    " produced": 8947,
    "system": 8948,
    "Mark": 8949,
    "_hash": 8950,
    " bg": 8951,
    " constit": 8952,
    " League": 8953,
    " mission": 8954,
    "_format": 8955,
    "([\n": 8956,
    "clusion": 8957,
    "!\"": 8958,
    "з": 8959,
    "break": 8960,
    "\tswitch": 8961,
    " ther": 8962,
    "Transform": 8963,
    " football": 8964,
    "-link": 8965,
    "route": 8966,
    ".auth": 8967,
    " bag": 8968,
    "overs": 8969,
    " enabled": 8970,
    " rac": 8971,
    "(I": 8972,
    "CR": 8973,
    "ancing": 8974,
    " managed": 8975,
    "_q": 8976,
    "NGTH": 8977,
    " mac": 8978,
    " Auto": 8979,
    "amente": 8980,
    " '',": 8981,
    ".Append": 8982,
    " pin": 8983,
    ".item": 8984,
    "acking": 8985,
    " occas": 8986,
    "person": 8987,
    " ti": 8988,
    ".Reg": 8989,
    " haven": 8990,
    " glass": 8991,
    " \"</": 8992,
    " Simple": 8993,
    "Print": 8994,
    " surround": 8995,
    "NO": 8996,
    "。\n": 8997,
    "        \r\n": 8998,
    " Many": 8999,
    " \"_": 9000,
    " weekend": 9001,
    " somew": 9002,
    ".params": 9003,
    "small": 9004,
    "ATED": 9005,
    " plugin": 9006,
    "fields": 9007,
    " Initialize": 9008,
    "oon": 9009,
    "atile": 9010,
    "ye": 9011,
    " vous": 9012,
    "LAG": 9013,
    " older": 9014,
    " gam": 9015,
    " extremely": 9016,
    " het": 9017,
    "enum": 9018,
    " SET": 9019,
    "xff": 9020,
    " timer": 9021,
    "/index": 9022,
    " critical": 9023,
    "Rows": 9024,
    "_argument": 9025,
    " execute": 9026,
    " showing": 9027,
    ".xml": 9028,
    "-list": 9029,
    "Role": 9030,
    "typename": 9031,
    "_method": 9032,
    "that": 9033,
    "cher": 9034,
    " â": 9035,
    "XT": 9036,
    " thousands": 9037,
    "\tn": 9038,
    " resp": 9039,
    "_price": 9040,
    "olut": 9041,
    "Ag": 9042,
    " Two": 9043,
    " becomes": 9044,
    " hus": 9045,
    ".Use": 9046,
    "theme": 9047,
    "urb": 9048,
    " /*\n": 9049,
    "erialize": 9050,
    "ARN": 9051,
    " lose": 9052,
    "Lower": 9053,
    " vel": 9054,
    " defense": 9055,
    "condition": 9056,
    " bes": 9057,
    " dry": 9058,
    " scroll": 9059,
    ".Show": 9060,
    "IEL": 9061,
    "ор": 9062,
    " Rest": 9063,
    "Where": 9064,
    "oods": 9065,
    " Jes": 9066,
    " wire": 9067,
    "_INFO": 9068,
    " strings": 9069,
    "gment": 9070,
    " matches": 9071,
    " electric": 9072,
    " excellent": 9073,
    " Council": 9074,
    "idade": 9075,
    " wx": 9076,
    "push": 9077,
    "_entry": 9078,
    " tasks": 9079,
    " rich": 9080,
    "sa": 9081,
    " Smith": 9082,
    "UNCTION": 9083,
    "Pointer": 9084,
    "pective": 9085,
    " widget": 9086,
    "ista": 9087,
    " agency": 9088,
    " sich": 9089,
    "ologies": 9090,
    " trial": 9091,
    "alysis": 9092,
    ".check": 9093,
    "ARK": 9094,
    " onChange": 9095,
    "about": 9096,
    "',$": 9097,
    "(val": 9098,
    " placed": 9099,
    "_NO": 9100,
    " dan": 9101,
    ".equal": 9102,
    "\t     ": 9103,
    " weather": 9104,
    ".game": 9105,
    " destination": 9106,
    "_USER": 9107,
    "iece": 9108,
    " provider": 9109,
    ".last": 9110,
    "plex": 9111,
    "Note": 9112,
    "/js": 9113,
    " på": 9114,
    " planning": 9115,
    "attribute": 9116,
    "PRO": 9117,
    "atches": 9118,
    " <-": 9119,
    " seeing": 9120,
    " cancel": 9121,
    "_ind": 9122,
    ".keys": 9123,
    " visual": 9124,
    " Current": 9125,
    " College": 9126,
    " Rock": 9127,
    " agreement": 9128,
    " Store": 9129,
    "oving": 9130,
    " corner": 9131,
    "ampions": 9132,
    "ISE": 9133,
    "Fin": 9134,
    " protection": 9135,
    " fi": 9136,
    "Play": 9137,
    "plugin": 9138,
    ")}": 9139,
    ".frame": 9140,
    "-z": 9141,
    " transition": 9142,
    "igin": 9143,
    " candidate": 9144,
    " Union": 9145,
    "_values": 9146,
    "(map": 9147,
    "cle": 9148,
    " trend": 9149,
    "wide": 9150,
    "aren": 9151,
    "Loc": 9152,
    "UTH": 9153,
    " Bay": 9154,
    " smaller": 9155,
    "ius": 9156,
    "well": 9157,
    " criminal": 9158,
    " conflic": 9159,
    "bert": 9160,
    "_INT": 9161,
    " investment": 9162,
    "custom": 9163,
    " Session": 9164,
    "_write": 9165,
    "ania": 9166,
    " Mass": 9167,
    "_EQ": 9168,
    "_NOT": 9169,
    " violence": 9170,
    "Argument": 9171,
    "_email": 9172,
    " belong": 9173,
    "_function": 9174,
    " enemy": 9175,
    "ema": 9176,
    " Address": 9177,
    ".empty": 9178,
    " inner": 9179,
    " Contact": 9180,
    "Loader": 9181,
    "<input": 9182,
    " CA": 9183,
    "lot": 9184,
    " pictures": 9185,
    " Support": 9186,
    "_names": 9187,
    "Layer": 9188,
    " Click": 9189,
    "Sum": 9190,
    " Look": 9192,
    "uous": 9193,
    "Lib": 9194,
    "Flags": 9195,
    "team": 9196,
    "EP": 9197,
    "hat": 9198,
    "override": 9199,
    "apsed": 9200,
    " labels": 9201,
    "quis": 9202,
    " Stream": 9203,
    "_device": 9204,
    " Commit": 9205,
    "(root": 9206,
    "\"}": 9207,
    ".isEmpty": 9208,
    "\tM": 9209,
    " angle": 9210,
    " Because": 9211,
    "%%%%%%%%": 9212,
    " aim": 9213,
    " stick": 9214,
    "stmt": 9215,
    "agraph": 9216,
    "answer": 9217,
    " clin": 9218,
    " Isl": 9219,
    ".ext": 9220,
    " INT": 9221,
    " styles": 9222,
    " born": 9223,
    " scr": 9224,
    " expand": 9225,
    " raised": 9226,
    "TextBox": 9227,
    "ILL": 9228,
    "------------------------------------------------": 9229,
    "HTTP": 9230,
    ">)": 9231,
    "_char": 9232,
    "resource": 9233,
    " episode": 9234,
    " '_": 9235,
    " Es": 9236,
    " Earth": 9237,
    "  ": 9238,
    "UPDATE": 9239,
    " Sou": 9240,
    "uis": 9241,
    "types": 9242,
    " mas": 9243,
    " fav": 9244,
    " construct": 9245,
    "_rate": 9246,
    "eras": 9247,
    " |\n": 9248,
    "roperties": 9249,
    " external": 9250,
    " applied": 9251,
    " prefix": 9252,
    "oted": 9253,
    "lers": 9254,
    " cold": 9255,
    " SP": 9256,
    " Church": 9257,
    " Output": 9258,
    "losed": 9259,
    "ç": 9260,
    "ificate": 9261,
    "operation": 9262,
    "herit": 9263,
    "xFF": 9264,
    ".env": 9265,
    "_err": 9266,
    "osh": 9267,
    "Direction": 9268,
    "Cancel": 9269,
    " Frank": 9270,
    " finding": 9271,
    ".)\n\n": 9272,
    " router": 9273,
    "・": 9274,
    "ses": 9275,
    " crow": 9276,
    "=='": 9277,
    " sand": 9278,
    " rid": 9279,
    "iture": 9280,
    " entre": 9281,
    " observ": 9282,
    " vac": 9283,
    "ð": 9284,
    "-T": 9285,
    "Art": 9286,
    "night": 9287,
    ".search": 9288,
    " exchange": 9289,
    " district": 9290,
    ".os": 9291,
    " department": 9292,
    " documents": 9293,
    " century": 9294,
    " Next": 9295,
    "Host": 9296,
    " KIND": 9297,
    " susp": 9298,
    "-P": 9299,
    "rend": 9300,
    ".em": 9301,
    "uite": 9302,
    "isters": 9303,
    "(json": 9304,
    " Ann": 9305,
    "wt": 9306,
    "ati": 9307,
    " HTML": 9308,
    "when": 9309,
    "Directory": 9310,
    " shut": 9311,
    "<a": 9312,
    "edy": 9313,
    " healthy": 9314,
    " temperature": 9315,
    " Gen": 9316,
    " metal": 9317,
    " submit": 9318,
    " DO": 9319,
    " attract": 9320,
    " {};\n": 9321,
    " Word": 9322,
    " ll": 9323,
    " seemed": 9324,
    "ko": 9325,
    "IED": 9326,
    " labor": 9327,
    ".Context": 9328,
    " asset": 9329,
    "you": 9330,
    " cars": 9331,
    " Column": 9332,
    " ré": 9333,
    " square": 9334,
    " NSString": 9335,
    "”,": 9336,
    "apes": 9337,
    "...\n": 9338,
    " thanks": 9339,
    "(props": 9340,
    " tick": 9341,
    " experiment": 9342,
    " prison": 9343,
    "tree": 9344,
    "-text": 9345,
    " IOException": 9346,
    "-width": 9347,
    "_STATUS": 9348,
    "fast": 9349,
    "-body": 9350,
    "-header": 9351,
    " guar": 9352,
    "crete": 9353,
    " Tim": 9354,
    " clearly": 9355,
    " Republican": 9356,
    " justify": 9357,
    "ит": 9358,
    "\t    ": 9359,
    "cache": 9360,
    ";//": 9361,
    " presence": 9362,
    " factors": 9363,
    " employee": 9364,
    "]))": 9365,
    "Member": 9366,
    " selector": 9367,
    "bor": 9368,
    " Mex": 9369,
    "的": 9370,
    "utex": 9371,
    "_tag": 9372,
    "ailure": 9373,
    " Net": 9374,
    " reli": 9375,
    "EG": 9376,
    " fprintf": 9377,
    " teen": 9378,
    "loss": 9379,
    " leaving": 9380,
    "Delegate": 9381,
    " beat": 9382,
    " minute": 9383,
    "subscribe": 9384,
    " redistribute": 9385,
    "Constants": 9386,
    " cancer": 9387,
    "/{": 9388,
    "BL": 9389,
    " span": 9390,
    " Child": 9391,
    "Center": 9392,
    " earth": 9393,
    "YS": 9394,
    " Level": 9395,
    " sea": 9396,
    ".support": 9397,
    ".inner": 9398,
    ".Item": 9399,
    "illing": 9400,
    "    \n    \n": 9401,
    " Label": 9402,
    " Est": 9403,
    "(arg": 9404,
    "boBox": 9405,
    "\tforeach": 9406,
    "cos": 9407,
    "Failed": 9408,
    "swers": 9409,
    "Editor": 9410,
    "ront": 9411,
    " MP": 9412,
    "expr": 9413,
    " Life": 9414,
    " ??": 9415,
    "ör": 9416,
    " attend": 9417,
    " Que": 9418,
    " species": 9419,
    "-D": 9420,
    " aus": 9421,
    "Struct": 9422,
    " advantage": 9423,
    "oston": 9424,
    "-block": 9425,
    "initial": 9426,
    "CRE": 9427,
    " truly": 9428,
    " compare": 9429,
    "orney": 9430,
    " spect": 9431,
    "Full": 9432,
    "bes": 9433,
    " visible": 9434,
    " mess": 9435,
    "stances": 9436,
    " cloud": 9437,
    "_version": 9438,
    " furn": 9439,
    "icago": 9440,
    "LOW": 9441,
    " traffic": 9442,
    " fol": 9443,
    "rypto": 9444,
    " declar": 9445,
    " slot": 9446,
    " Ext": 9447,
    " England": 9448,
    " Under": 9449,
    " ta": 9450,
    "letter": 9451,
    " officer": 9452,
    " Donald": 9453,
    "Yes": 9454,
    "_json": 9455,
    "ITableView": 9456,
    " USE": 9457,
    "mployee": 9458,
    " opinion": 9459,
    " Aut": 9460,
    "border": 9461,
    " advice": 9462,
    " automatically": 9463,
    "isco": 9464,
    " mm": 9465,
    ".vis": 9466,
    "aml": 9467,
    " initialize": 9468,
    " ({": 9469,
    " ;\n\n": 9470,
    " generation": 9471,
    " bits": 9472,
    "clipse": 9473,
    " unf": 9474,
    "utors": 9475,
    "plt": 9476,
    " delta": 9477,
    "estroy": 9478,
    "isis": 9479,
    "<br": 9480,
    " limitations": 9481,
    " ended": 9482,
    " Mad": 9483,
    "ilm": 9484,
    "These": 9485,
    " Minister": 9486,
    " chart": 9487,
    "Fragment": 9488,
    " independent": 9489,
    "Year": 9490,
    " instr": 9491,
    " tags": 9492,
    "AVE": 9493,
    " Arch": 9494,
    "stop": 9495,
    "Progress": 9496,
    " mi": 9497,
    " learned": 9498,
    "Ge": 9499,
    " hotel": 9500,
    "SM": 9501,
    "TYPE": 9502,
    " cy": 9503,
    "ERSION": 9504,
    "unately": 9505,
    "limit": 9506,
    "sel": 9507,
    " movies": 9508,
    " steel": 9509,
    "oz": 9510,
    "gb": 9511,
    " Camp": 9512,
    "site": 9513,
    " Logger": 9514,
    "PLE": 9515,
    "од": 9516,
    ".right": 9517,
    " Core": 9518,
    " mixed": 9519,
    "step": 9520,
    " puts": 9521,
    "super": 9522,
    "Router": 9523,
    ".Http": 9524,
    "lyph": 9525,
    " Colors": 9526,
    " androidx": 9527,
    ".str": 9528,
    " innov": 9529,
    " deck": 9530,
    "'>\n": 9531,
    "apers": 9532,
    "](": 9533,
    "continue": 9534,
    "spec": 9535,
    " Road": 9536,
    "ASH": 9537,
    "iliar": 9538,
    " continues": 9539,
    " appoint": 9540,
    " #\n": 9541,
    " Vir": 9542,
    " ?>\"": 9543,
    " bin": 9544,
    "}\",": 9545,
    "going": 9546,
    "each": 9547,
    "BD": 9548,
    " Access": 9549,
    "Doc": 9550,
    " Management": 9551,
    "BER": 9552,
    "asket": 9553,
    ".getInstance": 9554,
    " established": 9555,
    "socket": 9556,
    "INS": 9557,
    "\tvirtual": 9558,
    "\tresult": 9559,
    "READ": 9560,
    "_height": 9561,
    " Font": 9562,
    " ();\n": 9563,
    "_html": 9564,
    " neighbor": 9565,
    "lor": 9566,
    " gather": 9567,
    " })\n\n": 9568,
    " identity": 9569,
    " fab": 9570,
    "padding": 9571,
    " Route": 9572,
    "Enumerable": 9573,
    " forced": 9575,
    "/jquery": 9576,
    ".\n\n\n\n\n\n": 9577,
    "resents": 9578,
    "_left": 9579,
    ".Param": 9580,
    "\tthrow": 9581,
    " Ham": 9582,
    " eventually": 9583,
    "acer": 9584,
    "pub": 9585,
    " tra": 9586,
    "unique": 9587,
    "del": 9588,
    " Florida": 9589,
    " Clean": 9590,
    "xa": 9591,
    " ·": 9592,
    " validate": 9593,
    "Visual": 9594,
    "Expression": 9595,
    "_func": 9596,
    "member": 9597,
    "\th": 9598,
    "trl": 9599,
    "\tG": 9600,
    "napshot": 9601,
    " PropTypes": 9602,
    "vin": 9603,
    "])\n\n": 9604,
    "owl": 9605,
    "ifies": 9606,
    " $('.": 9607,
    " Context": 9608,
    " Toast": 9609,
    ".Key": 9610,
    " officers": 9611,
    "/n": 9612,
    "sn": 9613,
    "undefined": 9614,
    ".items": 9615,
    "utow": 9616,
    "amage": 9617,
    " accounts": 9618,
    "ookie": 9619,
    "Section": 9620,
    "icians": 9621,
    " advis": 9622,
    "(is": 9623,
    "[:,": 9624,
    " France": 9625,
    "Func": 9626,
    "icious": 9627,
    " tok": 9628,
    "Channel": 9629,
    " AD": 9630,
    "_NUM": 9631,
    " timeout": 9632,
    "lemma": 9633,
    "reme": 9634,
    "uj": 9635,
    ".Al": 9636,
    "uclear": 9637,
    "(os": 9638,
    "(\"<": 9639,
    "[\n": 9640,
    "fetch": 9641,
    " bal": 9642,
    " guid": 9643,
    "-align": 9644,
    " Write": 9645,
    " Once": 9646,
    "utowired": 9647,
    "ODULE": 9648,
    " pitch": 9649,
    "CF": 9650,
    "bytes": 9651,
    " Commission": 9652,
    " incred": 9653,
    "PER": 9654,
    "_response": 9655,
    " Los": 9656,
    "parser": 9657,
    " assume": 9658,
    ".Request": 9659,
    " Token": 9660,
    "_position": 9661,
    " nom": 9662,
    "-term": 9663,
    " remaining": 9664,
    "iostream": 9665,
    " pieces": 9666,
    "apy": 9667,
    " Less": 9668,
    "range": 9669,
    "umbn": 9670,
    "prise": 9671,
    "_option": 9672,
    "Impl": 9673,
    "kwargs": 9674,
    " businesses": 9675,
    "Alert": 9676,
    " parties": 9677,
    " Container": 9678,
    " Private": 9679,
    " Plan": 9680,
    " registered": 9681,
    " jour": 9682,
    "acker": 9683,
    "ени": 9684,
    "/>": 9685,
    "chat": 9686,
    "sect": 9687,
    " creation": 9688,
    "olutely": 9689,
    " instant": 9690,
    " delivery": 9691,
    "icken": 9692,
    "yes": 9693,
    " Franc": 9694,
    "bling": 9695,
    "enda": 9696,
    "[(": 9697,
    "_range": 9698,
    "                                  ": 9699,
    " schedule": 9700,
    "Conn": 9701,
    " thank": 9702,
    "xd": 9703,
    " hook": 9704,
    " documentation": 9705,
    "Parameters": 9706,
    "Hello": 9707,
    "vt": 9708,
    " articles": 9709,
    " west": 9710,
    "defined": 9711,
    ".select": 9712,
    "okens": 9713,
    " VAL": 9714,
    ".file": 9715,
    "reset": 9716,
    " mys": 9717,
    " MA": 9718,
    "]),": 9719,
    " cities": 9720,
    "related": 9721,
    "å": 9722,
    " appeared": 9723,
    " wid": 9724,
    ".panel": 9725,
    " Ins": 9726,
    ".entity": 9727,
    " decre": 9728,
    " Lou": 9729,
    "(time": 9730,
    " Thank": 9731,
    ".createElement": 9732,
    " mentioned": 9733,
    "ounce": 9734,
    " Try": 9735,
    " Wall": 9736,
    "/images": 9737,
    " Menu": 9738,
    "'\r\n": 9739,
    " Er": 9740,
    " critic": 9741,
    " Year": 9742,
    "(param": 9743,
    " flo": 9744,
    "NN": 9745,
    "ooter": 9746,
    " ];\n": 9747,
    " Aff": 9748,
    "\"github": 9749,
    "rooms": 9750,
    " hyp": 9751,
    "global": 9752,
    " avec": 9753,
    "月": 9754,
    " completion": 9755,
    " cond": 9756,
    "onymous": 9757,
    "(temp": 9758,
    " stars": 9759,
    " relevant": 9760,
    " covered": 9761,
    " elim": 9762,
    "_types": 9763,
    "(bool": 9764,
    " tu": 9765,
    "_exists": 9766,
    " secure": 9767,
    " stored": 9768,
    "]/": 9769,
    "xF": 9770,
    " Controller": 9771,
    " migr": 9772,
    "MI": 9773,
    " Den": 9774,
    " annual": 9775,
    "UIL": 9776,
    "-and": 9777,
    " crime": 9778,
    "bel": 9779,
    " kitchen": 9780,
    "@g": 9781,
    "_ph": 9782,
    "ournament": 9783,
    " Social": 9784,
    " Special": 9785,
    "logger": 9786,
    " tail": 9787,
    " unknown": 9788,
    "ded": 9789,
    " apprec": 9790,
    "(db": 9791,
    "cf": 9792,
    " assign": 9793,
    "-out": 9794,
    " Mont": 9795,
    "dp": 9796,
    "widget": 9797,
    " stone": 9798,
    "-primary": 9799,
    ".grid": 9800,
    "Results": 9801,
    "azz": 9802,
    " daughter": 9803,
    " curr": 9804,
    " lin": 9805,
    " south": 9806,
    "forms": 9807,
    " OUT": 9808,
    "lette": 9809,
    "aks": 9810,
    "igure": 9811,
    " EU": 9812,
    "variable": 9813,
    " brief": 9814,
    " Scott": 9815,
    " conference": 9816,
    "anda": 9817,
    "_lock": 9818,
    "oral": 9819,
    " eine": 9820,
    "ORS": 9821,
    "////////////////////////////////////////////////////////////////": 9822,
    "esso": 9823,
    " ris": 9824,
    " gender": 9825,
    "estic": 9826,
    "License": 9827,
    "(out": 9828,
    " ms": 9829,
    "See": 9830,
    " willing": 9831,
    "aze": 9832,
    " sports": 9833,
    " yes": 9834,
    "lu": 9835,
    " purs": 9836,
    "/javascript": 9837,
    "-pro": 9838,
    "navbar": 9839,
    "_product": 9840,
    "/bootstrap": 9841,
    " driving": 9842,
    " Ä": 48686,
    " propos": 9844,
    "ultip": 9845,
    "uplic": 9846,
    ".email": 9847,
    " approx": 9848,
    "(cl": 9849,
    " wear": 9850,
    " reply": 9851,
    "asset": 9852,
    " ice": 9853,
    " tx": 9854,
    "kr": 9855,
    " Germany": 9856,
    " George": 9857,
    " cb": 9858,
    "\terr": 9859,
    "Move": 9860,
    " poly": 9861,
    "voice": 9862,
    "}\"": 9863,
    " animal": 9864,
    "Av": 9865,
    " Location": 9866,
    " native": 9867,
    "][\"": 9868,
    "<double": 9869,
    " mais": 9870,
    ",int": 9871,
    " prepar": 9872,
    " interval": 9873,
    "plementation": 9874,
    "_ERR": 9875,
    " bug": 9876,
    ">\"": 9877,
    "stat": 9878,
    " },\r\n": 9879,
    "<span": 9880,
    " faith": 9881,
    " rom": 9882,
    "prev": 9883,
    " Elect": 9884,
    "Find": 9885,
    " god": 9886,
    "otor": 9887,
    "//----------------------------------------------------------------": 9888,
    "original": 9889,
    "Cpp": 9890,
    " Senate": 9891,
    " positions": 9892,
    " weapons": 9893,
    " coff": 9894,
    " purposes": 9895,
    "pol": 9896,
    " impress": 9897,
    " animals": 9898,
    ".Entity": 9899,
    "(np": 9900,
    " murder": 9901,
    " ``": 9902,
    "flag": 9903,
    " solutions": 9904,
    " Active": 9905,
    " bright": 9906,
    ".date": 9907,
    " situ": 9908,
    "（": 9909,
    ".ID": 9910,
    " sie": 9911,
    "),\r\n": 9912,
    "akt": 9913,
    "Space": 9914,
    ".dat": 9915,
    ".indexOf": 9916,
    "han": 9917,
    "azine": 9918,
    " Ze": 9919,
    " crash": 9920,
    "(/": 9921,
    ">=": 9922,
    "б": 9923,
    "iva": 9924,
    ".AutoSize": 9925,
    " Lat": 9926,
    "_ext": 9927,
    "Initialize": 9928,
    ".register": 9929,
    "OPY": 9930,
    " reverse": 9931,
    "_dis": 9932,
    "'][": 9933,
    " prompt": 9934,
    "onto": 9935,
    " Journal": 9936,
    "router": 9937,
    " mysqli": 9938,
    "#else": 9939,
    ")\"": 9940,
    "-xs": 9941,
    "lets": 9942,
    "phan": 9943,
    ".LE": 9944,
    "Will": 9945,
    " afford": 9946,
    " skill": 9947,
    "-toggle": 9948,
    "NC": 9949,
    "Bind": 9950,
    "TS": 9951,
    "Just": 9952,
    "iteral": 9953,
    "YP": 9954,
    "\tunsigned": 9955,
    " wind": 9956,
    ")):\n": 9957,
    " warning": 9958,
    " Water": 9959,
    " draft": 9960,
    " cm": 9961,
    " sam": 9962,
    " holding": 9963,
    "zip": 9964,
    " Science": 9965,
    " supposed": 9966,
    "Gen": 9967,
    " diet": 9968,
    "<h": 9969,
    " Pass": 9970,
    "vi": 9971,
    " husband": 9972,
    "��": 9973,
    "note": 9974,
    " About": 9975,
    " Institute": 9976,
    " climate": 9977,
    ".Format": 9978,
    " nut": 9979,
    "ested": 9980,
    " apparent": 9981,
    " holds": 9982,
    "fi": 9983,
    "news": 9984,
    "CM": 9985,
    "video": 9986,
    "':'": 9987,
    "DITION": 9988,
    "ping": 9989,
    " senior": 9990,
    "wa": 9991,
    "-->\n": 9992,
    "_default": 9993,
    " Database": 9994,
    "rep": 9995,
    "ESS": 9996,
    "nergy": 9997,
    ".Find": 9998,
    "_mask": 9999,
    " rise": 10000,
    " kernel": 10001,
    "::$": 10002,
    ".Q": 10003,
    " offering": 10004,
    "decl": 10005,
    " CS": 10006,
    " listed": 10007,
    " mostly": 10008,
    "enger": 10009,
    " blocks": 10010,
    "olo": 10011,
    " governing": 10012,
    "\\F": 10013,
    " concent": 10014,
    ".getText": 10015,
    " mb": 10016,
    " occurred": 10017,
    " changing": 10018,
    "Scene": 10019,
    "_CODE": 10020,
    "Beh": 10021,
    "\"The": 10022,
    " tile": 10023,
    " Association": 10024,
    "\tP": 10025,
    "alty": 10026,
    "_ad": 10027,
    "odies": 10028,
    "iated": 10029,
    " prepared": 10030,
    "possible": 10031,
    " mort": 10032,
    "TEST": 10033,
    " ignore": 10034,
    " calc": 10035,
    " rs": 10036,
    " assertEquals": 10037,
    " sz": 10038,
    " THIS": 10039,
    ".\"\n": 10040,
    " canvas": 10041,
    "java": 10042,
    " dut": 10043,
    "VALID": 10044,
    ".sql": 10045,
    ".input": 10046,
    " aux": 10047,
    "Sup": 10048,
    " artist": 10049,
    "Vec": 10050,
    "_TIME": 10051,
    ".stringify": 10052,
    "etween": 10053,
    " Category": 10054,
    " [-": 10055,
    " DevExpress": 10056,
    " Jul": 10057,
    " ring": 10058,
    ".ed": 10059,
    "YY": 10060,
    "Let": 10061,
    "TextField": 10062,
    " flat": 10063,
    "_print": 10064,
    " OTHER": 10065,
    "adian": 10066,
    " checked": 10067,
    "ele": 10068,
    "Align": 10069,
    "standing": 10070,
    " [],": 10071,
    " lab": 10072,
    "ucky": 10073,
    " Christmas": 10074,
    "(image": 10075,
    ".module": 10076,
    " lots": 10077,
    " slightly": 10078,
    "(final": 10079,
    "erge": 10080,
    "è¿": 10081,
    " Police": 10082,
    " Right": 10083,
    " award": 10084,
    " OS": 10085,
    " {}\n\n": 10086,
    " ptr": 10087,
    "oves": 10088,
    "icated": 10089,
    "ем": 10090,
    " manage": 10091,
    "oliday": 10092,
    "Amount": 10093,
    "oolStrip": 10094,
    "tbody": 10095,
    "Nav": 10096,
    "wrap": 10097,
    "BB": 10098,
    " watching": 10099,
    "arios": 10100,
    " optional": 10101,
    "_K": 10102,
    " Licensed": 10103,
    ".Map": 10104,
    "Timer": 10105,
    " AP": 10106,
    " Rev": 10107,
    "(o": 10108,
    ",c": 10109,
    "umin": 10110,
    "etailed": 10111,
    " Hy": 10112,
    " blank": 10113,
    "agger": 10114,
    " Self": 10115,
    "()[": 10116,
    ".make": 10117,
    "earn": 10118,
    "channel": 10119,
    "<pre": 10120,
    "blem": 10121,
    "_password": 10122,
    "_sp": 10123,
    "icing": 10124,
    "ez": 10125,
    " theory": 10126,
    " Ter": 10127,
    ",n": 10128,
    "logo": 10129,
    " HTTP": 10130,
    "()))": 10131,
    ".handle": 10132,
    ">;\n": 10133,
    "World": 10134,
    " python": 10135,
    " lif": 10136,
    " trav": 10137,
    " conven": 10138,
    "company": 10139,
    " Club": 10140,
    "Ver": 10141,
    "Btn": 10142,
    " zone": 10143,
    "products": 10144,
    " Educ": 10145,
    " verify": 10146,
    " Mil": 10147,
    "ono": 10148,
    "]);\n\n": 10149,
    "ENCE": 10150,
    " packet": 10151,
    " cer": 10152,
    " enumer": 10153,
    " pars": 10154,
    "formed": 10155,
    " occup": 10156,
    "tre": 10157,
    " exercise": 10158,
    "Day": 10159,
    "_sum": 10160,
    " asking": 10161,
    "aption": 10162,
    " orders": 10163,
    " spending": 10164,
    " ERR": 10165,
    ".Dis": 10166,
    " Util": 10167,
    "“I": 10168,
    "\\'": 10169,
    "?)": 10170,
    "/>\n": 10171,
    " emot": 10172,
    " influence": 10173,
    " Africa": 10174,
    "atters": 10175,
    "م": 10176,
    ".session": 10177,
    " chief": 10178,
    "\t\t\t\t\t\t\t\t\t\t\t": 10179,
    " tom": 10180,
    "cluded": 10181,
    "serial": 10182,
    "_handler": 10183,
    ".Type": 10184,
    "aped": 10185,
    " policies": 10186,
    "-ex": 10187,
    "-tr": 10188,
    "blank": 10189,
    "merce": 10190,
    " coverage": 10191,
    " rc": 10192,
    "_matrix": 10193,
    "_box": 10194,
    " charges": 10195,
    " Boston": 10196,
    "Pe": 10197,
    " circum": 10198,
    " filled": 10199,
    " north": 10200,
    "ictureBox": 10201,
    "\tres": 10202,
    "è®": 10203,
    " termin": 10204,
    " […": 10205,
    "IRECT": 10206,
    " ber": 10207,
    " \"../../": 10208,
    "retch": 10209,
    ".code": 10210,
    "_col": 10211,
    " Government": 10212,
    " argv": 10213,
    " Lord": 10214,
    "asi": 10215,
    "Exec": 10216,
    "\tlet": 10217,
    "vertis": 10218,
    " discussion": 10219,
    "enance": 10220,
    "outube": 10221,
    "typeof": 10222,
    " served": 10223,
    " Put": 10224,
    "\tx": 10225,
    " sweet": 10226,
    "Before": 10227,
    "ategy": 10228,
    ".of": 10229,
    " Material": 10230,
    "Sort": 10231,
    "ONT": 10232,
    "igital": 10233,
    "Why": 10234,
    " sust": 10235,
    " ç": 18086,
    "abet": 10237,
    " segment": 10238,
    " [],\n": 10239,
    " Muslim": 10240,
    " findViewById": 10241,
    "cut": 10242,
    "_TEXT": 10243,
    " Mary": 10244,
    " loved": 10245,
    " lie": 10246,
    " JO": 10247,
    " isset": 10248,
    "month": 10249,
    " prime": 10250,
    "ti": 10251,
    " Carol": 10252,
    "Use": 10253,
    " Pop": 10254,
    " Save": 10255,
    "Interval": 10256,
    "execute": 10257,
    "dy": 10258,
    " Iran": 10259,
    "_cont": 10260,
    "\tT": 10261,
    " phase": 10262,
    "checkbox": 10263,
    "week": 10264,
    " hide": 10265,
    " til": 10266,
    " ju": 10267,
    "Custom": 10268,
    "burg": 10269,
    "/M": 10270,
    "TON": 10271,
    " quant": 10272,
    " rub": 10273,
    "ixels": 10274,
    " installed": 10275,
    " dump": 10276,
    " properly": 10277,
    "(List": 10278,
    " decide": 10279,
    "apply": 10280,
    "Has": 10281,
    " keeping": 10282,
    " citizens": 10283,
    " joint": 10284,
    "pool": 10285,
    "Socket": 10286,
    "_op": 10287,
    " weapon": 10288,
    "gnore": 10289,
    " Exec": 10290,
    "otten": 10291,
    " MS": 10292,
    " (-": 10293,
    " Review": 10294,
    " examples": 10295,
    " tight": 10296,
    "!(": 10297,
    "DP": 10298,
    " MessageBox": 10299,
    " photograph": 10300,
    "URI": 10301,
    "ét": 10302,
    "low": 10303,
    " Grand": 10304,
    ".persistence": 10305,
    " maintain": 10306,
    " nums": 10307,
    " zip": 10308,
    "ials": 10309,
    " Gets": 10310,
    "peg": 10311,
    " Buffer": 10312,
    "~~~~": 10313,
    "rastructure": 10314,
    " PL": 10315,
    "uen": 10316,
    "obby": 10317,
    "sizeof": 10318,
    " pic": 10319,
    " seed": 10320,
    " experienced": 10321,
    " odd": 10322,
    " kick": 10323,
    " procedure": 10324,
    "avigator": 10325,
    "-on": 10326,
    ",j": 10327,
    " Although": 10328,
    " userId": 10329,
    "accept": 10330,
    "Blue": 10331,
    "IColor": 10332,
    "layer": 10333,
    "available": 10334,
    " ends": 10335,
    ".table": 10336,
    " dataset": 10337,
    "bus": 10338,
    " explain": 10339,
    "(pro": 10340,
    " Committee": 10341,
    " noted": 10342,
    "]:\n": 10343,
    "Dim": 10344,
    "stdio": 10345,
    ".\",\n": 10346,
    "_source": 10347,
    " Week": 10348,
    " Edge": 10349,
    " operating": 10350,
    " este": 10351,
    "ipl": 10352,
    "agination": 10353,
    " proceed": 10354,
    " animation": 10355,
    ".Models": 10356,
    " Watch": 10357,
    "iat": 10358,
    " oppon": 10359,
    "/A": 10360,
    "Report": 10361,
    " sounds": 10362,
    "_buf": 10363,
    "IELD": 10364,
    " bund": 10365,
    "\tget": 10366,
    ".pr": 10367,
    "(tmp": 10368,
    " kid": 10369,
    ">\n\n\n": 10370,
    " yang": 10371,
    "NotFound": 10372,
    "ц": 10373,
    "math": 10374,
    "@gmail": 10375,
    " LIMIT": 10376,
    "redients": 10377,
    " vent": 10378,
    "avigate": 10379,
    "Look": 10380,
    " religious": 10381,
    " rand": 10382,
    "rio": 10383,
    "(GL": 10384,
    "_ip": 10385,
    "uan": 10386,
    "iciency": 10387,
    " Change": 10388,
    ">\r\n\r\n": 10389,
    " Entity": 10390,
    " rencontre": 10391,
    " Ret": 10392,
    "plan": 10393,
    "én": 10394,
    "BOOL": 10395,
    "uries": 10396,
    "train": 10397,
    "Definition": 10398,
    "============": 10399,
    "zz": 10400,
    "Animation": 10401,
    " OK": 10402,
    "_menu": 10403,
    ".bl": 10404,
    "_score": 10405,
    " acad": 10406,
    "(System": 10407,
    " refresh": 10408,
    "'=>$": 10409,
    ".Graphics": 10410,
    "amento": 10411,
    "pid": 10412,
    "tc": 10413,
    " tips": 10414,
    " homes": 10415,
    " fuel": 10416,
    "â": 10417,
    "_helper": 10418,
    "  \r\n": 10419,
    " Room": 10420,
    ".Close": 10421,
    "_attr": 10422,
    " Mount": 10423,
    " Ev": 10424,
    "arser": 10425,
    "_top": 10426,
    "eah": 10427,
    " Delete": 10428,
    "」": 10429,
    "uke": 10430,
    " usage": 10431,
    "aria": 10432,
    "_dev": 10433,
    " texture": 10434,
    " conversation": 10435,
    "eper": 10436,
    "Bean": 10437,
    "done": 10438,
    "nonatomic": 10439,
    " Second": 10440,
    " shooting": 10441,
    "_pre": 10442,
    "Components": 10443,
    " ]\n\n": 10444,
    "__,": 10445,
    "stitution": 10446,
    ".Char": 10447,
    ">();\n\n": 10448,
    " presented": 10449,
    " wa": 10450,
    "oker": 10451,
    "-\n\n": 10452,
    "iner": 10453,
    " becoming": 10454,
    " incident": 10455,
    "Att": 10456,
    " revealed": 10457,
    "forc": 10458,
    " boot": 10459,
    ".page": 10460,
    "Enumerator": 10461,
    "_->": 10462,
    "Photo": 10463,
    " spring": 10464,
    ".\",": 10465,
    " Dictionary": 10466,
    "BJECT": 10467,
    " locations": 10468,
    " samples": 10469,
    "InputStream": 10470,
    " Brown": 10471,
    " stats": 10472,
    "quality": 10473,
    "х": 10474,
    "-dis": 10475,
    " helping": 10476,
    " ped": 10477,
    "(se": 10478,
    " Who": 10479,
    "alian": 10480,
    "internal": 10481,
    " ft": 10482,
    ">().": 10483,
    "->{": 10484,
    " mine": 10485,
    " sector": 10486,
    " gro": 10487,
    " opportunities": 10488,
    " ü": 10489,
    " mp": 10490,
    " alleged": 10491,
    " doubt": 10492,
    "Mouse": 10493,
    "About": 10494,
    "_part": 10495,
    " chair": 10496,
    " stopped": 10497,
    "loop": 10498,
    "entities": 10499,
    " apps": 10500,
    "ansion": 10501,
    " mental": 10502,
    "                                         ": 10503,
    "FR": 10504,
    " defend": 10505,
    "care": 10506,
    " ideal": 10507,
    "/api": 10508,
    "urface": 10509,
    " ele": 10510,
    "ulator": 10511,
    " Rights": 10512,
    "anguages": 10513,
    " funds": 10514,
    " adapt": 10515,
    "Attributes": 10516,
    " deploy": 10517,
    "opts": 10518,
    " validation": 10519,
    " concerns": 10520,
    "uce": 10521,
    ".num": 10522,
    "ulture": 10523,
    "ila": 10524,
    " cup": 10525,
    " pure": 10526,
    ".Fore": 10527,
    " HashMap": 10528,
    ".valueOf": 10529,
    "asm": 10530,
    "MO": 10531,
    " cs": 10532,
    " stores": 10533,
    " ************************************************************************": 10534,
    " communication": 10535,
    "mem": 10536,
    ".EventHandler": 10537,
    ".Status": 10538,
    "_right": 10539,
    ".setOn": 10540,
    "Sheet": 10541,
    " identify": 10542,
    "enerated": 10543,
    "ordered": 10544,
    " \"[": 10545,
    " swe": 10546,
    "Condition": 10547,
    " According": 10548,
    " prepare": 10549,
    " rob": 10550,
    "Pool": 10551,
    " sport": 10552,
    "rv": 10553,
    " Router": 10554,
    " alternative": 10555,
    "([]": 10556,
    " Chicago": 10557,
    "ipher": 10558,
    "ische": 10559,
    " Director": 10560,
[...]
